[PAD]
[CLS]
[SEP]
[MASK]
[UNK]
<s>
</s>
▁(
▁)
▁.
▁;
er
in
at
on
et
▁p
▁S
▁,
st
▁{
▁}
ic
bl
al
▁V
AR
▁=
en
▁VAR
ion
ss
re
▁t
▁c
ri
▁pu
blic
▁public
or
▁n
TR
▁STR
ct
ing
ur
de
an
▁g
le
ro
ce
▁f
ate
▁get
▁s
ass
▁r
tr
ar
▁@
te
▁i
tring
▁ret
urn
ew
ent
▁v
▁return
am
▁th
pt
▁<
ul
▁in
▁new
▁>
▁O
Re
ue
id
▁String
se
it
is
lass
In
ver
▁b
▁e
ut
Ex
_1
▁T
ad
Con
ert
il
ption
▁st
ble
▁fin
ap
riv
▁final
oid
▁priv
ed
▁private
ist
▁void
▁class
▁int
est
▁re
▁m
xt
pe
able
Co
ull
▁this
ch
▁+
▁A
ride
verride
ation
▁Override
ception
▁l
Exception
un
ag
ck
ect
ame
St
ter
up
▁ass
oo
row
▁assert
▁M
▁L
ment
mp
ra
ata
▁stat
ype
ig
▁if
▁o
▁D
qu
▁P
▁static
alue
bj
end
el
▁C
as
▁d
iz
▁0
ode
▁throw
bject
▁null
▁1
im
der
▁set
lo
▁I
_2
▁B
▁[
▁]
um
Type
ction
es
qual
ult
Name
and
Fi
Res
Pro
lean
▁con
uil
oolean
▁is
▁tr
ol
fig
▁w
▁pro
▁throws
▁N
age
our
▁h
ource
▁In
quals
add
ff
▁boolean
▁Test
ot
List
em
act
od
yte
En
ory
ec
▁Object
ong
text
og
▁de
th
▁add
ize
Config
que
Value
ase
put
ey
uilder
Th
▁ext
ends
▁R
app
ser
Id
▁extends
atch
▁:
ime
Data
Ser
cted
To
ray
ers
fo
oc
▁a
ess
om
quest
ress
▁Co
_3
ger
▁!
▁to
Ar
Equals
▁ex
alse
▁J
ator
▁List
_0
stan
ve
▁res
File
▁==
ow
int
▁for
▁-
String
unt
▁assertEquals
pl
ial
State
art
▁F
▁Re
Context
ath
Test
ream
ock
ON
lement
▁H
ice
reate
_4
us
▁?
ure
ain
▁U
if
▁false
Met
▁ch
▁value
ader
Null
▁sup
ext
▁prote
▁true
▁protected
til
vice
_5
eld
dex
ER
ort
Class
▁par
ition
Util
Key
▁super
▁E
fa
▁!=
Set
▁Exception
tt
Par
_6
pert
▁create
▁assertTh
arg
hod
Ch
lle
os
actory
▁long
▁assertThat
Cont
▁co
stance
ack
▁test
▁G
cess
Node
pon
li
uration
_7
cri
ile
ponse
ute
eng
_8
ir
Builder
ener
ay
roup
Map
Source
ength
ans
orm
essage
uff
▁IO
Tr
per
ash
ach
▁2
▁j
stra
ler
Stat
Request
Factory
▁app
▁name
▁IOException
ssert
ask
ord
lu
ub
ith
ire
▁byte
Object
ge
▁k
QL
ity
eck
▁Assert
Info
De
mpl
IN
_9
Array
itor
Field
teger
Ad
ive
vent
set
▁St
all
bstra
Stream
bstract
mm
lements
▁out
Configuration
Service
An
yst
▁en
uffer
Man
Time
ins
Response
Hand
▁data
co
00
▁try
ule
fault
Utils
_10
▁el
ror
▁Map
rite
Propert
ager
▁Ar
ystem
lient
ication
AT
▁size
▁else
ence
▁put
▁imp
ializ
Result
read
▁W
iew
ql
ument
Manager
ted
▁implements
ine
_11
▁Th
▁result
ies
out
try
ecut
▁cont
▁u
nect
oint
ard
ann
ings
▁->
ilter
unction
▁length
Se
▁SQL
pins
Al
▁Integer
Code
yn
son
▁&
With
gist
▁Class
LE
umn
Table
ME
ast
ou
ttp
mpt
▁Data
ail
rom
Path
_12
ind
ax
ean
▁Array
▁File
▁append
uild
ogger
Method
Un
arget
ber
dress
str
Size
ore
urr
▁catch
Of
fer
▁Con
▁Pro
ST
vid
▁key
ouble
ob
ery
Qu
amet
Index
▁sh
Arg
RE
Count
▁id
ID
_13
Byte
Out
ffset
Not
Message
op
▁toString
press
Resource
amp
ost
▁3
Ap
Statement
▁Colle
Execut
ip
val
cord
tern
lock
rib
▁isE
ache
are
▁&&
ace
ry
mpty
urrent
vider
OR
AL
▁++
Handler
cript
▁equals
ool
ange
Col
annel
und
▁read
_14
Content
rint
let
He
▁write
ersion
True
onNull
▁System
Instance
▁ser
ram
Event
av
ary
▁start
▁build
andom
form
▁builder
▁instance
mo
▁En
▁check
ak
Input
▁getL
ab
▁context
Sh
▁IN
ht
▁De
isitor
ken
ocation
Comp
uf
Property
▁Collection
ign
ribute
ccess
▁Ser
_15
ocal
gin
ession
ethod
sh
▁Ch
▁type
port
Buffer
▁K
▁on
ac
ptions
of
uct
ink
rror
plication
Client
nection
arn
odel
▁Long
lose
▁er
cept
ly
View
Pre
Int
▁|
▁print
Query
Action
▁contain
Des
Lo
▁Null
▁Byte
reg
iv
Output
▁Set
▁arg
▁parse
tem
AN
Address
ference
Provider
ster
▁col
CE
ifi
▁wh
SON
▁x
ric
Listener
▁getS
loat
ION
▁config
▁Par
Argument
_16
stant
For
qualTo
rowable
luster
Function
▁getName
oin
Trans
rap
adata
HAR
▁Abstract
And
On
quire
By
group
Inter
▁assertTrue
▁comp
▁request
rit
▁of
race
lect
Or
apper
Oper
Parser
own
▁Throwable
▁as
ameter
▁next
eb
▁index
▁getClass
▁Un
Filter
▁abstract
EN
▁num
ializer
Status
sp
▁DB
dev
Bean
▁hash
mb
Error
ari
unn
▁max
ork
▁expe
Group
alid
chem
terator
ated
▁Type
ug
▁Http
▁Ex
Column
Ret
▁fi
▁se
▁CHAR
_17
ormat
▁contains
▁instanceof
low
▁4
point
▁state
ttribute
AME
▁pre
ang
ark
▁map
▁||
▁Nullable
pr
▁random
▁has
▁current
con
ound
Num
arch
code
SE
Bytes
tings
Server
▁list
emory
Case
riter
▁input
dition
▁field
All
▁5
chema
Regist
Up
sum
Comm
▁case
groups
▁10
Version
uth
Format
▁ArrayList
pos
ance
erm
ust
▁Option
▁default
af
date
As
IT
▁log
scri
▁Path
face
rol
utable
▁str
uture
▁run
river
▁X
▁un
Dec
▁double
gal
_18
llegal
▁close
Task
use
mplet
▁source
pression
bug
orted
Thread
▁JSON
▁isEqualTo
▁::
▁inter
▁Objects
apt
Loader
rame
Block
raph
Process
▁Ap
ature
ln
ify
DE
ync
gram
▁sub
otation
▁init
to
ava
rl
Attribute
Match
Record
▁Comp
ill
▁Mock
▁println
base
criptor
Cache
pec
action
ight
ariable
▁from
Sp
▁node
md
▁info
ateg
▁count
ecute
Reader
mage
sc
▁getP
▁form
Unit
TE
▁Illegal
▁remo
led
▁100
oot
osition
▁Node
▁file
Properties
UL
gg
_19
Rule
PE
mmutable
▁Sup
be
Options
db
ized
ded
artition
irect
Application
▁time
ree
From
▁Hash
▁format
one
attern
▁obj
▁Tr
ook
Base
Contain
Token
Call
dr
Return
imp
▁up
▁he
▁entry
▁target
▁expected
lag
NotNull
▁trans
▁Builder
▁Json
▁require
back
py
▁Configuration
▁error
ams
mplate
Execution
ocket
▁message
▁al
ject
▁An
imple
▁getM
Operation
Check
▁end
▁com
ps
ix
Long
▁ver
▁float
Text
emplate
Log
At
▁user
ther
Reference
abel
▁ac
▁or
FI
Metadata
tity
User
Executor
ody
▁sql
▁My
▁Request
▁Immutable
_20
ens
ual
plit
▁NonNull
OU
untime
Types
ternal
▁getValue
reak
abled
▁Log
Def
Warn
CT
dic
Str
UE
Constant
rity
Session
Resol
▁Ad
▁Sh
Le
ative
TY
ib
Sub
▁Optional
▁Thread
DataSource
Item
Visitor
ING
Connection
▁bl
iss
lugin
Offset
vir
▁mock
▁Inter
▁q
▁do
Length
▁hand
▁buf
cle
▁act
sg
FA
Target
NAME
Command
LI
▁output
ched
vel
ggreg
viron
Entry
▁met
vironment
ops
Access
older
▁Method
onent
▁stream
Default
▁char
loc
▁buffer
onitor
Element
ustom
Hash
▁Logger
Impl
ported
1_
SS
▁other
ok
▁getC
ite
▁Time
▁Stream
▁method
Warnings
ample
io
▁Pre
notation
▁execute
▁reg
▁offset
▁DE
▁regist
▁visitor
▁find
fore
▁Suppress
vlet
Descriptor
Hel
ymb
cl
ymbol
efore
NonNull
ifier
Get
struct
Next
Values
Que
▁Collections
Future
Point
▁args
du
▁response
ULT
▁dev
RL
▁at
▁remove
ee
Writer
CON
▁le
Serializer
Queue
apping
2_
bser
Sql
Runn
indow
▁Trans
ause
eature
False
sumer
dm
Dis
▁path
_21
OG
▁ro
ud
imit
▁op
imest
▁Resource
▁ar
imestamp
Sup
▁isEmpty
Handle
▁cl
Channel
▁requireNonNull
▁Col
▁values
▁client
Parameter
Model
apter
▁with
Trace
▁sp
Metric
▁table
Variable
▁hashCode
rig
MP
▁val
▁verify
ait
ron
Boolean
ions
posit
Order
xy
odule
Control
Number
mt
Act
▁Arrays
ph
▁parser
ori
▁when
cket
End
Location
Template
ia
pc
System
▁lo
space
▁Default
AD
▁y
VAL
rim
TH
Schema
Gener
lan
perties
tom
▁filter
▁sw
Store
tx
aders
Http
data
RO
Su
quence
ft
nap
Container
Pool
ucket
▁break
gment
Intercept
SQL
▁dis
az
Registry
po
Entity
ayout
Job
▁match
AX
Spec
unter
Stats
▁Met
olic
ish
ao
Helper
▁Config
▁StringBuilder
leg
load
ics
▁json
▁User
size
DArray
▁tx
▁empty
aly
▁Address
ialize
▁conf
_22
name
lags
▁status
Mode
info
pository
count
RI
ld
ingle
▁min
▁Web
0_
Socket
Date
vok
ED
ild
rc
▁event
ier
Processor
fter
Expression
▁while
▁Se
Memory
lob
CO
▁z
lection
ape
Row
FAULT
▁qu
▁Input
ower
ameters
Bo
ointer
▁text
▁Value
uto
Defin
iff
ible
▁comm
Conver
Names
▁Get
▁Uns
shot
olicy
▁IllegalArgument
AG
Op
Proto
otal
▁Local
Valid
LO
▁8
len
map
lat
Header
▁Context
▁HashMap
idth
par
▁logger
rag
napshot
orage
▁column
▁<=
Mapper
Start
Dir
Read
SI
▁sc
Url
file
ared
red
etw
▁object
gn
addr
CH
ailure
ors
▁bt
enc
▁6
Direct
Iterator
ave
▁Job
ynch
Sc
ynchron
▁Boolean
▁INDArray
Ed
.0
illis
lear
AB
▁Function
▁Task
▁Response
▁accept
▁err
Frame
Settings
upported
▁update
▁bytes
▁Application
▁group
▁reader
perty
▁process
_23
sent
Constants
Enabled
Del
Init
TER
Body
Aggreg
▁valid
ender
▁Double
▁dataSource
▁LOG
Char
▁register
Definition
ategy
▁Atom
Integer
EY
tract
▁record
▁RE
▁assertFalse
▁Action
Colle
rigin
▁DEFAULT
ulti
cope
▁copy
▁sb
▁Dis
Graph
ake
emp
▁Atomic
▁block
▁an
ages
pring
gent
ATE
▁Sql
▁ur
structor
ayer
type
Auth
inary
▁last
ner
Mapping
▁XContent
Runner
▁Base
Partition
▁Key
gnore
▁+=
bo
Pack
▁parent
Meta
DataType
driver
raw
▁channel
▁Char
▁code
Us
▁load
ms
Ver
place
▁conver
▁call
▁sk
DB
lot
▁ag
ical
▁array
ATION
legate
SER
sed
▁ent
▁addr
▁tmp
Millis
Sec
Line
▁short
▁task
▁ad
Cluster
word
Adapter
plier
ml
VALUE
▁Runtime
▁service
▁Date
Environment
stat
▁interface
ep
▁not
gress
vocation
UT
VM
ient
Option
▁cmd
Ref
ynchronized
InputStream
▁Comm
▁delet
▁Unsupported
Resolver
▁>=
▁then
▁resource
Policy
uple
▁Result
UID
Web
ved
Image
▁string
▁rx
Doc
▁resol
edia
Transaction
TYPE
▁asList
NT
▁Rest
_24
sw
▁action
cer
▁Text
Local
ility
Create
tex
Range
ant
▁row
5_
valid
Tag
▁DataType
▁job
▁synchronized
OutputStream
dbc
line
▁query
Down
ension
ANCE
Strategy
▁clear
▁Bean
▁session
bserver
▁Before
Annotation
Feature
▁url
If
Tests
Servlet
64
cription
isit
ialization
XContent
▁Service
fix
▁delete
ET
▁..
▁...
Is
▁Sub
▁To
EL
▁Entry
▁Field
Complet
inglet
ration
ingleton
AP
▁stmt
Methods
▁base
toc
▁collect
▁msg
▁actual
resh
tocol
▁Channel
clu
ector
uld
Segment
▁getA
ould
▁content
Bit
omain
IL
Write
▁execut
▁getMessage
ick
Component
Controller
Per
Det
ditions
Host
CK
ember
IME
irst
aw
▁getKey
Shard
Ident
Plugin
▁item
pre
Position
ragment
Tra
queue
App
▁getR
▁Table
air
ynam
▁apply
rup
▁debug
Converter
▁port
racle
▁State
ENT
rupted
▁old
▁Simple
Interceptor
igh
ritable
Repository
Back
itch
▁Message
Java
rapper
Tool
afe
Select
_25
fs
ision
inal
Ext
▁Spring
▁getLogger
scription
▁SQLStatement
IG
▁element
Columns
Window
azz
ency
Throw
Ptr
No
▁handle
▁thread
▁getType
ibr
▁cluster
ipe
▁ImmutableList
▁view
▁iterator
▁Row
Expr
▁position
▁Block
nt
▁LL
iven
lobal
amed
▁Gener
▁Void
▁statement
ole
▁compare
▁Index
izer
ide
Stack
anel
ibrary
▁fail
▁Internal
dices
▁Link
▁thenReturn
Update
▁MAX
ete
Description
▁dest
Timeout
▁MySql
oop
Split
▁Cluster
dis
▁ph
Monitor
▁len
Generator
Be
▁gener
Failure
▁host
▁12
lus
▁first
▁model
NO
▁assertNotNull
▁Not
hen
Max
Json
chedul
Kind
▁local
Level
10
Pattern
▁listener
ABLE
▁getTable
LA
▁valueOf
▁Interrupted
Script
▁rt
Sequence
▁URL
▁order
atcher
nector
arator
ond
ries
▁Query
▁address
iler
Page
▁Oracle
▁reset
▁Program
igned
▁options
afk
▁Sp
lay
STANCE
PT
▁View
KEY
▁getRe
ater
ru
Tree
cover
ialog
▁oper
cry
▁connection
ification
000
▁Math
Headers
oder
▁getId
Matcher
straint
3_
▁visit
▁cache
▁param
Database
▁_
FF
▁finally
▁all
sert
TO
▁token
▁Big
▁server
▁delegate
her
clude
ctor
Ass
voke
Double
Proxy
▁given
Change
▁rec
▁ctx
12
assword
▁command
▁SQLException
ench
▁checkNotNull
Storage
formation
▁timeout
rix
LEN
order
ority
UM
chedule
ookup
cre
▁getInstance
▁Al
ategory
Callback
Snapshot
urity
Directory
Metrics
TestCase
Holder
Diff
▁LLVM
Timestamp
oll
▁No
▁Stat
▁ap
Wrapper
pend
VER
▁Model
rst
▁properties
unnable
Args
imer
▁ml
Buf
▁replace
Empty
DS
▁version
IC
Label
mark
buf
▁Int
Ms
ctrl
Bound
ivity
ynamic
▁origin
fg
Operator
▁Parameter
_26
▁INSTANCE
idx
▁ts
down
scribe
▁pw
▁work
Ac
▁convert
ached
▁Tuple
UN
then
▁expect
attr
▁params
▁flags
Analy
Consumer
▁Property
▁Complet
Lock
Port
▁7
▁JsonProperty
▁mlx
iled
ices
▁Num
erson
▁att
ret
ducer
Each
ting
▁sec
AM
▁var
ates
ired
▁1000
▁singleton
First
Symbol
ell
table
▁wait
▁Server
pect
Uri
▁Y
▁ref
pic
▁total
Layout
ersist
▁split
▁getB
Pointer
terable
▁Out
coder
JSON
tempt
ie
imal
pro
▁Column
▁mlxsw
Work
▁line
▁ByteBuffer
Span
▁program
Progress
ayload
▁getF
ped
▁open
Module
Rec
ified
ations
right
PP
Found
AS
Param
angu
itive
▁Execution
▁Post
unk
blish
Driver
apped
ycle
▁TestCase
▁range
Parameters
loy
OL
lice
ialized
▁TimeUnit
▁cause
Cl
▁trace
▁page
Cap
ential
andard
lease
▁tdm
▁metadata
▁Run
▁monitor
▁that
▁Event
erge
mode
ities
▁Element
▁db
StateException
Conf
Search
Keys
Decoder
old
prec
Constructor
▁Aut
anguage
▁main
▁Shard
oding
INT
bs
mote
▁Linked
play
▁env
▁queue
▁doc
▁SQLUtils
Codec
▁exception
etch
Observer
▁InputStream
▁getProperty
Color
Debug
Fields
▁temp
Parent
▁left
▁mask
▁Le
VE
FS
▁Jdbc
vail
crement
Transform
Api
▁tag
▁Settings
▁hw
▁Record
Load
▁fs
ogram
▁rule
utt
istogram
▁Annotation
▁20
▁Check
pin
Vertex
utton
Arguments
SET
▁validate
min
ability
▁clazz
mit
stru
Counter
▁ir
▁and
URL
▁Call
▁bit
▁Target
rid
sync
▁Java
utdown
struction
▁fw
itle
Mock
thm
Internal
etwork
▁NAME
NI
conditions
aster
Async
▁Buffer
New
▁cal
Nodes
atal
valu
▁Memory
entication
▁Preconditions
▁Metric
ifact
ged
MetaData
ists
▁Completable
unc
ran
ution
cheduler
▁Connection
▁Pu
▁appl
umm
▁switch
▁should
PER
▁9
acity
ination
▁Rule
▁root
▁Runnable
ict
coding
value
Custom
▁per
stream
Logger
▁factory
▁equalTo
_27
▁Properties
Aggregation
anged
▁resolve
▁handler
▁Cache
▁Token
mask
▁right
ito
index
ailed
riority
din
▁SD
lush
pare
Program
Identifier
▁0.
rawable
clk
dicate
▁graph
Width
Fragment
alth
Panel
▁pdev
▁Bytes
Same
PAR
Rest
Attempt
Auto
uffle
▁DataSource
Interface
Boot
enchmark
Active
Params
▁auth
Only
urs
duce
latform
▁function
ORT
aybe
STR
gre
Attributes
pha
▁ed
▁Parse
StatementParser
▁application
ured
▁mode
eed
sWith
current
fb
▁skb
▁join
32
ume
▁serial
Editor
▁getD
ys
▁Assertions
change
▁Expression
Condition
OT
usb
Child
EX
een
orter
ignature
▁Client
HashMap
▁LoggerFactory
▁Output
▁getBytes
DI
▁can
▁uri
desc
string
ale
sis
▁Iterator
etween
▁Str
▁Number
Bucket
lected
Constraint
▁rest
ulator
istics
Protocol
Part
24
Register
location
Shape
pu
▁CON
vable
▁settings
▁location
Present
crypt
▁attribute
▁SE
duct
ection
▁UN
Mult
Library
▁Bit
▁irq
▁Debug
scriber
▁Trace
▁Auth
Join
▁Image
Term
▁writer
▁Single
PO
eight
GER
ferred
▁Oper
▁frame
cs
▁select
Endpoint
ump
Root
num
iver
▁bind
gine
▁He
▁hasNext
▁pos
owired
▁Pattern
▁bean
CONDS
▁org
ancel
▁original
Detail
tep
▁partition
posable
▁configuration
▁header
▁entity
inder
AGE
ome
▁Media
▁ann
Prefix
enu
icate
▁parameter
ending
▁Condition
▁src
ildr
Supplier
offset
ildren
ested
BU
▁cap
▁Autowired
AY
ELD
▁enum
net
▁SDVariable
▁Aggreg
▁isTrue
▁Generic
▁Multi
▁label
rop
ormal
eg
tifact
priv
▁req
▁stop
▁Float
▁Iterable
mploy
▁executor
Reg
▁mac
PRO
Limit
covery
ty
active
▁Source
▁java
▁metric
Ow
osite
▁Dec
▁encode
status
ClassLoader
ense
TimeMillis
ason
Files
nown
▁provider
▁Custom
acter
▁getResource
SION
Success
way
CTION
▁TY
_28
▁addAll
▁decode
▁statementList
▁RunWith
▁getDefault
▁idx
Close
ank
▁argument
bt
▁getString
Cal
▁TYPE
gori
Bind
round
▁number
▁Random
▁Or
▁Agent
vailable
▁prev
leep
link
ializable
▁Standard
▁Mockito
ply
▁http
roid
Collection
StatVisitor
redential
▁Sec
Profile
▁Code
Collector
▁body
▁prepare
Space
▁Ref
▁URI
vm
JNI
Non
cc
list
lation
▁su
pose
Dialog
ission
Information
▁child
Last
precated
▁warn
▁Search
dc
FoundException
VersionUID
▁swig
tra
gorithm
eth
kt
Complete
▁invoke
DBC
▁Require
▁rc
Ignore
rx
▁Des
▁FI
MPTY
SP
sl
cip
▁attr
▁ByteArray
Ph
MO
Alpha
▁swigC
xed
ranch
SH
Slot
Min
▁description
yle
igest
Engine
▁agg
▁generate
Between
Selection
▁shard
when
Float
Height
▁Span
▁send
▁Process
TIME
Single
ines
Document
16
Addr
core
ex
Aud
TED
▁save
Namespace
Batch
▁iter
main
▁PAR
ONE
rok
▁part
▁NotNull
▁Transaction
▁EMPTY
zer
FileSystem
Elements
mployee
▁Build
Extension
▁Version
Scope
lision
cast
▁Filter
aml
Plan
Short
▁Executor
alm
▁substring
asic
▁timestamp
20
roll
▁custom
One
▁post
▁Common
▁Del
▁Ret
▁Interface
▁Inet
▁Regist
Track
UR
Checkpoint
▁use
rate
hance
SC
Link
▁Mon
▁exp
AC
▁Command
▁assertNull
Report
▁pwm
cmd
strap
▁Tag
▁isNull
astic
match
▁getColumns
Layer
▁getT
▁Binary
▁Constant
ma
Usage
Binary
▁vol
vc
req
▁transform
_29
▁ParseField
Enum
cent
▁limit
ta
Exp
tractor
▁pattern
▁getPre
▁Duration
ursor
▁any
ATA
odifi
▁headers
rigger
ename
oute
▁newBuilder
▁ST
ORM
lace
Support
▁image
Latch
Compat
▁link
Decl
▁Page
▁option
ating
▁Component
▁Hand
eo
▁bucket
ci
▁JDBC
Mark
▁Sc
Ids
▁Order
▁forEach
▁be
get
▁Session
▁parseObject
arl
rimary
teg
Project
▁sort
56
▁container
▁StringUtils
▁insert
▁after
ipeline
▁tra
▁search
ories
▁getTables
phy
▁Postgre
ined
ization
comp
VI
Statistics
Encoding
ameDiff
wait
▁schema
bservable
18
mi
▁complet
▁ev
Assign
▁Plugin
▁Error
REG
Comparator
▁setUp
▁enable
▁newInstance
▁access
ByteArray
▁tool
Writable
▁proxy
Assert
Invocation
StackTrace
state
▁off
WN
▁HashSet
Agent
undle
Ali
atalog
▁show
▁man
El
issing
▁lock
▁16
OUT
▁allow
▁containsKey
search
Bar
▁After
▁ClassLoader
▁annotation
▁XContentBuilder
▁width
afka
ging
▁Async
mac
▁Auto
▁counter
bers
▁agent
AND
enable
orre
cr
Cre
Imp
Runtime
Pair
▁Servlet
▁Collect
cnt
▁0.0
▁Attribute
▁sleep
▁Api
its
aded
▁property
Sink
Decimal
▁ImmutableMap
▁randomBoolean
rin
▁setup
ges
▁Schema
▁dataType
▁Consumer
xx
DateTime
▁ul
ear
isson
▁Deprecated
SW
Button
▁XContentParser
▁JSONObject
asticsearch
▁Flow
▁native
Priv
▁Color
▁ByteBuf
▁smb
ackage
LIC
PRE
PTION
▁CO
res
irt
disson
▁HttpServlet
▁runTest
4_
Over
▁parameters
After
▁remote
▁Entity
endar
▁initialize
▁struct
▁LOGGER
▁Instance
Parse
▁<<
▁checkArgument
▁setName
▁Db
anner
alle
ont
▁Serializable
▁Metadata
▁parseStatement
roy
Uns
essages
▁Nd
Perm
mment
▁release
Random
0000
Resolved
▁Ext
LASS
▁def
▁span
atrix
▁entrySet
▁Invalid
▁Doc
▁back
isible
▁phy
▁Op
▁sum
com
bsol
▁shutdown
EST
▁MySQL
Category
▁Disposable
▁NO
Packet
IVE
ky
▁Concurrent
Dao
CHE
▁Benchmark
▁alloc
ORD
off
Dist
▁Factory
▁startsWith
▁Public
YTE
known
▁decl
iod
▁getObject
▁Join
▁getMethod
ll
ptim
nal
▁El
Qual
MENT
Mvc
▁Tree
▁conn
▁getPath
Interval
OfLength
▁ignore
Algorithm
▁EN
▁Person
ward
NE
bsolute
▁getSimple
▁swigCPtr
▁notNull
▁Redis
Delete
▁emptyList
▁Symbol
Arch
▁getBean
inue
ev
Details
▁stats
Vector
COL
Example
ceiver
▁increment
▁getIn
▁Enum
allel
FIX
Encoder
wr
▁Count
▁FileSystem
pected
Commit
cfg
Folder
▁Connector
▁wrap
▁store
rad
▁randomAlpha
icense
▁singletonList
▁Collectors
redentials
▁dispose
▁web
strument
▁topic
AST
▁indices
ASE
Run
▁MIN
ignal
▁Writable
▁getAddress
▁Graph
ById
▁ow
▁SQLExpr
imap
pared
▁TR
110
▁Struct
rupt
ware
irtual
TT
Activity
▁Id
Pu
sure
▁Act
arlark
Histogram
▁BigInteger
▁Group
Native
▁Parameterized
▁future
▁down
element
cheduled
eral
Add
ITY
▁desc
FIG
Mod
▁deser
▁Sharding
MAX
here
PAT
ordin
_30
bsent
ERR
▁des
ationException
QU
▁matches
▁mapper
▁EX
▁proto
lled
OF
▁On
Flow
▁ValueNode
▁cur
▁Database
Results
▁module
log
imes
plic
▁before
pinctrl
FILE
▁getCon
Role
atile
▁ip
▁operator
▁Spec
▁date
pth
ML
Exact
Filters
▁SU
▁second
Pos
▁1024
Member
▁getCurrent
Second
▁Script
▁transaction
▁sel
aver
▁Transport
▁Up
Open
Build
▁namespace
▁getData
▁net
▁RowData
sTo
▁payload
ulate
▁getMax
▁AtomicInteger
▁PRO
peed
Fixed
▁ss
Use
▁flush
▁height
icle
Changed
patcher
▁Container
▁Write
▁merge
time
▁Priv
sn
▁rf
▁Locale
aun
IO
▁make
▁script
▁registry
ERROR
Depend
▁toArray
▁className
▁Close
Chain
Classes
▁io
▁lookup
▁matcher
▁subscribe
▁uart
voker
▁Top
▁>>
▁getLog
▁getStatus
▁Param
▁31
ere
imel
▁Res
Are
▁getContext
maining
Env
sing
InterceptPoint
▁ds
▁raw
sion
▁Yarn
▁SpringBoot
▁meta
▁Dynamic
▁await
Password
▁App
▁getSimpleName
odifiable
imeline
▁driver
▁Handler
▁bus
▁getConnection
da
no
Records
▁unm
▁continue
▁symbol
▁Composite
▁tg
Post
Deser
oriz
Comment
▁Named
paredStatement
▁Truffle
tc
▁pp
Binding
ystrix
Ent
▁getUser
ClassName
▁Util
▁del
ift
▁compute
▁project
▁toJSON
▁consumer
▁Variable
▁initial
▁mark
Formatter
▁And
▁Analy
Such
ES
▁sync
▁compareTo
OUR
aged
▁Remote
▁cs
Anim
Step
▁each
▁Label
TRY
vol
param
ifec
ifecycle
aunch
Checker
IP
Domain
▁defaultValue
gex
▁active
ummy
▁mt
▁Mono
ancelled
pack
80
Remo
ilation
▁Future
Var
▁reference
▁rate
▁UT
▁Options
Extractor
Execute
▁cancel
Icon
▁perform
▁prefix
elp
upl
▁Name
Multi
▁window
50
ious
▁getFile
▁AL
▁NoSuch
path
When
Bounds
▁Delete
▁destroy
▁environment
not
▁skip
rapped
ov
▁Ver
▁extract
▁getDecl
tl
▁rtl
▁exists
OST
▁Arg
Lower
parator
Alloc
ments
CLASS
Selector
yped
ports
▁throwable
Registration
iteral
ULL
Break
▁volatile
ulk
blisher
▁ptr
Package
▁Artifact
Word
▁Transform
OK
Section
▁Conditional
atable
▁plugin
pm
▁term
wt
Authentication
▁dir
Integ
Transport
ention
▁ut
▁mem
▁Scope
▁Create
cel
▁Item
URE
▁rs
▁getInt
avig
ibility
Backend
Flag
Producer
Capacity
Display
Own
SECONDS
▁expression
▁toJSONString
Corre
▁execution
▁det
▁descriptor
Children
▁1.0
Val
▁VT
Lookup
▁Bitmap
_31
▁ID
Selected
34
▁no
Validator
▁TypeSerializer
▁Invocation
SocketAddress
▁onError
Throws
▁toList
rie
▁word
Mem
▁Dist
Expect
▁bar
▁arguments
Global
▁getAll
▁Conver
▁Access
▁Character
▁enabled
ground
Suite
▁Socket
DataSet
ACK
▁32
▁refresh
▁cPtr
ctl
cap
▁control
▁Hystrix
▁Native
▁Buffered
Msg
cat
ruid
ToString
dx
▁Platform
▁Elasticsearch
▁KEY
▁getSource
Copy
null
▁DBS
▁copyOf
imum
iple
▁OUT
Health
▁delay
porter
Accessor
▁createTest
eners
▁getParent
▁Environment
▁aggreg
umulator
▁Observable
sets
▁Min
▁sample
Topic
▁randomInt
13
▁DataSet
mail
▁layout
▁Inject
▁tsin
▁setProperty
Drawable
▁getColumn
dir
ero
Than
Loop
Scheduler
▁checkState
19
angle
road
omp
Delay
DownLatch
▁Print
ptr
▁isPresent
Signature
TERN
ik
Using
DEX
rimitive
lug
Static
▁top
▁metrics
▁Collision
Current
▁Metrics
rade
▁ML
bit
▁Files
VICE
▁batch
Style
ORY
Security
▁ES
Edge
▁password
names
▁led
▁Lo
ited
7_
poch
atest
▁bo
ILLI
onical
attrs
▁PARSER
Full
▁Plan
▁internal
Subscriber
▁CollisionJNI
▁Security
sto
task
▁mult
gr
alar
▁trim
URI
▁mod
Privile
▁waitFor
▁configure
▁writeTo
▁memory
hanced
▁saver
▁Cl
netdev
OD
▁Ass
eme
▁charAt
▁DBP
aint
aterm
atermark
▁saverfb
write
▁indexOf
arable
DO
di
▁clone
tbl
▁Route
▁Point
▁Read
ONG
▁Android
eep
enk
roker
enkins
▁compile
ceptor
▁printStackTrace
Sw
▁shape
QUE
ng
▁Resolved
NOWN
appings
LU
ubbo
Resources
Phase
▁MediaType
Tasks
▁database
INE
eek
▁setValue
▁MLX
▁Pointer
ateway
rier
Chunk
Box
▁getN
▁Domain
▁callback
▁setId
▁serialize
▁reason
▁UTF
▁Supplier
vices
ux
Simple
IM
▁unmodifiable
ASK
▁VO
▁Starlark
▁template
MQ
stable
chain
ACE
▁dma
xff
ced
▁Gdx
_32
Indices
Require
inish
▁__
ism
▁stack
▁direct
▁TIME
OP
▁Module
enderer
ilities
Exists
eas
wo
Jar
Equal
CODE
stats
AndGet
ressed
Rout
▁variable
PUT
▁200
ootstrap
▁Register
▁Unstable
Language
40
hs
▁Private
▁exec
TestUtils
▁Short
Creator
FORM
now
Inst
▁OutputStream
Missing
▁endObject
▁Redisson
Allow
▁startObject
▁Druid
Place
lugins
Initializer
Region
▁JdbcConstants
mbed
Paths
▁getPreferred
Analyzer
▁my
ique
▁MLXSW
▁Non
▁StreamInput
params
▁ident
▁Global
▁serializer
▁Man
▁Level
▁attributes
istory
SU
▁Sl
CONFIG
▁Status
etty
▁Xml
acos
do
▁Flowable
ended
Groups
Invalid
▁required
▁Range
Dump
▁GET
▁eth
▁CharSequence
Fact
Persist
▁Kafka
▁begin
ression
box
Top
▁pc
▁getDataSource
▁APP
▁invocation
▁Hive
▁clean
OUNT
KNOWN
▁success
abilities
rincip
Available
Aggregator
rincipal
▁Tra
pi
Tester
▁Ed
▁getAttribute
Stamp
Origin
Preference
▁ps
GTH
▁segment
fw
▁getField
ffect
▁numberOf
Aware
ience
HashCode
▁CountDownLatch
▁sd
Click
JE
yth
▁simple
▁TEST
15
▁Window
▁getText
pet
▁inst
pa
▁declare
Fail
▁Mult
▁unit
CESS
▁Line
▁Vector
▁BigDecimal
ived
▁ResultSet
flags
▁member
late
Flags
grade
▁Foo
FIELD
▁elements
▁ht
ium
Dynamic
▁FIELD
Attr
▁keySet
GR
▁include
amil
Instruction
arm
ness
▁downstream
▁getHost
▁vf
alk
andid
High
LICATION
Based
▁Maybe
PB
▁scope
uplicate
vation
uid
▁Assertion
MS
Mask
▁getDeclared
▁keys
▁Operator
Safe
lip
▁ConditionalOn
▁Geo
BLE
ocks
stim
RES
iate
▁named
READ
▁DI
▁RO
Connect
ATOR
▁evalu
Configur
Sample
▁us
▁Sequence
MA
▁--
Items
▁global
Struct
lers
▁inner
Rate
▁LO
bsolutePath
Used
Heap
eric
▁Valid
HE
bound
▁setText
▁UUID
▁Uri
oreign
▁wl
ython
▁color
rift
▁getService
▁Feature
▁VER
▁Reader
reshold
hdr
▁title
verse
▁power
lux
▁WebSocket
FO
▁isFalse
▁isValid
▁DFS
▁mes
▁42
MIT
Master
OURCE
▁ActionListener
used
▁currentThread
ideo
direct
▁finish
▁now
▁getContent
LOW
▁getParameter
▁spi
TING
amily
▁Put
▁getCode
▁ChannelHandler
▁condition
Xml
▁Charset
Sphere
▁dt
▁Instant
Entries
Bits
Thrown
UP
▁Cal
Analysis
▁classLoader
ENTRY
bus
inter
▁calc
▁dist
Sort
reen
▁Nested
▁Queue
Exit
Admin
Upd
▁connect
ARG
Compiler
▁pkt
AccessException
Len
ribution
emo
ooled
▁getTime
comm
▁Employee
▁api
hancedInstance
ttach
▁sqlSession
JA
nowled
▁getTarget
board
Setting
si
for
▁LI
Tri
▁getOrder
SL
Dest
flow
iag
▁async
Digest
▁adapter
Annotations
▁Per
▁repository
▁persist
▁exchange
Else
ampl
PATH
TRI
cp
▁Ph
adera
▁results
▁Closeable
▁isDebug
adding
17
rows
dp
▁DBC
oft
▁Rpc
anges
▁fetch
mbedded
▁slot
ertif
▁getLong
Tags
▁Cached
▁extra
fid
Fetch
JECT
▁Reference
Cmd
▁AtomicReference
Should
▁snapshot
RequestBuilder
▁SW
viders
▁username
▁owner
Media
sub
ITE
▁ME
▁LinkedList
▁assertSame
ingObject
sume
▁setMax
Ip
▁50
PC
ove
▁feature
cknowled
device
Sharding
▁Slice
lide
Permission
light
▁15
▁spec
▁Serializer
allback
▁AssertionError
▁10000
▁getLocal
Temp
▁over
▁End
▁MD
cd
LowerCase
byte
PREFIX
▁MILLI
Exchange
erged
▁Aggregation
▁hdr
TTP
ertices
Without
roadcast
▁commit
▁props
▁getNum
▁Statement
limit
▁getLength
▁fields
Delegate
▁Timestamp
Subscribe
▁Dbg
▁Sky
▁Location
hid
Account
Predicate
CAL
ssi
Before
▁component
Audience
▁entries
Hint
Failed
▁pack
dout
Errors
▁storage
▁andExpect
ProgressMonitor
▁Bucket
▁layer
▁level
uilt
Supported
Timer
oly
raal
▁failure
aring
▁tableName
▁deserialize
▁getE
▁operation
▁Pair
holder
ensions
03
cing
AsString
TypeInfo
iset
nip
CHAR
▁dst
▁sequence
▁getSize
eak
ollow
▁pin
ummary
▁NullPointer
55
earDown
▁isNot
Generic
▁SECONDS
ribut
HttpRequest
PropertySource
ottom
▁Work
▁madera
▁cast
nippet
▁nextInt
▁complete
▁pdm
▁Argument
▁it
AMP
ForTest
▁Sample
▁Construct
▁readInt
Menu
Exist
▁exit
RAY
mise
lative
ivation
▁profile
▁weight
ented
Recorder
▁getMin
▁constant
Total
▁gl
▁Processor
Iter
Objects
okie
▁Basic
BeanDefinition
▁cfg
aved
▁Host
▁DBR
6_
My
▁curr
▁high
▁protocol
▁Format
Alias
Parallel
▁remaining
aling
Messages
hidra
HT
enter
urable
Identity
ives
▁safe
Finish
Events
ouse
adoop
ArgsConstructor
▁SC
▁apache
78
▁Gwt
▁Getter
cumulator
▁Empty
▁endpoint
LED
ount
▁getApplication
ful
▁items
▁FS
Transformer
he
verage
JUnit
Runnable
▁getConfig
easure
ongo
ARRAY
▁nodes
COUNT
▁getResult
class
Writeable
▁getIndex
▁isNotNull
Utilities
▁Export
▁Testing
ND
▁Comparator
Left
THOD
level
▁11
79
VERSION
_00
▁30
Labels
▁Layout
▁Document
ADER
▁schedule
▁TimeValue
▁Frame
udent
▁Stack
Bitmap
dfs
ingObjectParser
OB
ilename
Connector
pci
Retry
LY
Compatible
▁writeString
pp
▁toLowerCase
Absent
TestBase
▁DateTime
Unsigned
▁getUn
ns
conf
▁fieldName
IAL
▁retry
Product
lator
Cell
▁SameDiff
ining
Inject
ds
ThreadPool
▁Presto
aming
def
Shards
▁getNode
OS
▁cr
aptor
LOG
▁jsonData
vas
▁names
▁ImmutableSet
▁AtomicBoolean
STRING
Priority
pted
▁RequestMapping
▁Pdb
olume
▁orElse
Duration
Weight
Expected
END
notated
▁Flink
▁Params
▁MILLISECONDS
pwr
Pipeline
▁Mutable
Merge
iation
▁previous
▁TaskMonitor
ifest
Neg
enium
▁setS
▁Book
cheme
▁qup
PORT
▁Specialization
▁sdc
▁SER
uffix
INTER
Blocks
▁draw
▁getAbsolutePath
Hex
▁SI
Scan
▁poll
ordinator
MODE
▁Timeline
ACT
mot
▁Tool
Executable
▁mapping
Integration
Obj
Evalu
▁isC
Upper
▁Constructor
▁meson
▁analy
ipv
ving
▁domain
ias
Wait
▁track
page
▁BO
▁point
LENGTH
Exactly
uard
▁ioc
Allocation
Deserializer
▁ord
▁maybe
acy
ior
▁VERSION
andidate
▁Bind
AV
ssue
power
▁comb
cipient
▁supports
irection
▁capacity
MAP
den
ote
▁sameDiff
etry
▁Term
filer
59
Sum
▁Topic
▁assertThrows
sz
▁transient
▁Enable
Insert
Matrix
EC
▁notify
Network
▁NONE
▁just
latMap
▁DBException
arsh
▁Update
▁ResolvedJava
apture
Epoch
ThrownBy
azy
▁containsString
Marker
Artifact
▁AC
More
02
xer
▁interval
▁common
▁AtomicLong
frame
▁wrapped
Remove
▁report
Variables
▁collection
Lines
▁need
▁BIG
▁ClusterState
▁Virtual
Correct
Mappings
posed
ByName
▁processor
imension
Completion
ts
OUP
_33
DATA
eer
▁ResponseEntity
Validation
▁TAG
Owner
ush
▁runn
rime
▁types
Running
Contains
▁evaluate
ertificate
Inf
▁Root
embl
▁Static
IgnoreCase
Loc
▁product
▁getOutput
▁timer
▁Counter
Archive
Stub
POINT
Rules
▁will
Rows
▁iw
▁slice
Scale
▁ESTestCase
▁upstream
▁expr
▁observer
▁APPLICATION
▁SJA
▁intValue
▁proxyBean
config
▁fan
Remote
LOCK
scape
radient
▁getState
Idx
▁emit
86
▁Can
UnitTest
▁Direct
msg
IfAbsent
▁cls
▁Sorted
Payload
▁Predicate
Normal
Viewer
TableName
over
▁Storage
▁Parser
ular
▁seq
YTES
channel
▁expectThrows
Seconds
Bus
▁classes
▁Proxy
▁Analysis
▁getH
Refresh
▁servlet
▁cpu
▁inf
▁InstanceMethods
▁dec
▁pad
▁ic
Threads
▁Matcher
▁manager
▁done
Gateway
Optional
icalType
▁vertex
anos
isibility
check
▁step
Nullable
Contact
▁Pin
▁ensure
UUID
▁HttpHeaders
ai
Beh
Binder
Components
▁readNext
Actions
▁Network
DTO
uch
▁cnt
▁getInput
▁producer
NOT
irc
▁Dock
HashSet
▁Operation
orld
▁multi
▁testGet
▁findView
Credentials
width
MD
▁delta
RequestProto
▁getStart
▁duration
Features
▁getRequest
Desc
▁non
▁func
▁person
▁getConditions
Literal
▁parseInt
Roll
PARAM
layer
Main
▁HttpStatus
Score
▁pool
arted
esNot
Required
inel
Override
▁Cli
dma
▁role
▁retval
▁am
entinel
dk
▁Checkpoint
ipher
eras
▁LinkedHashMap
▁UNKNOWN
▁constructor
▁Bundle
Serialization
Tracker
Services
InBytes
▁zcrypt
▁SQLServer
▁via
▁perm
PBImpl
patch
▁ThreadPool
Stop
▁transport
XT
▁chan
Illegal
agement
▁inputStream
▁ordinal
▁jobId
▁getLast
Qualified
feed
Rates
cedure
▁Configurable
▁orig
TABLE
▁Calendar
Help
US
▁Imp
▁ShardingSphere
▁invalid
Plugins
MySql
▁findViewById
▁codec
▁document
illi
▁StreamOutput
iction
gle
ipient
Primary
14
Pipe
Agg
▁Mode
▁Help
Cause
ets
Reactive
External
▁Visible
centile
Pop
eom
▁PG
ANG
▁admin
nl
ADD
▁saved
Release
▁normal
▁assertNot
view
▁foo
▁Comparable
▁Jenkins
Created
▁viaProto
▁Mini
▁change
▁columns
▁getV
▁Nacos
ze
ally
FFER
ARY
▁pop
sole
▁Dat
ExecutionContext
kip
▁socket
▁Profile
Done
Final
ForTesting
▁util
▁dialog
▁Strings
▁Subscription
▁Bi
Chart
▁writeInt
▁VAL
22
▁Step
▁fill
pendency
Retrie
▁children
84
MIN
Enable
card
gacy
▁resolver
sql
QUEST
▁tree
▁Match
▁onNext
ases
▁Aud
▁getJob
au
NUM
ributor
▁containsExactly
eter
izard
▁full
▁Realm
▁NUM
Title
ForNull
▁pwr
▁cursor
etic
1105_
achine
pkt
dt
Off
▁PostgreSQL
▁force
▁selenium
▁comment
▁tearDown
acl
beat
▁getG
copy
▁Callable
▁category
▁recorder
Privileges
▁Ignore
artbeat
eration
▁InetAddress
BE
▁getClassLoader
▁media
▁Signal
▁submit
volving
▁render
Exec
istic
Trigger
ART
Transition
coded
▁Wall
WORD
Scroll
BER
Shutdown
▁getDescription
▁BIGINT
▁onComplete
▁40
▁language
uter
▁ObjectMapper
96
aller
▁getVersion
▁getFunction
Worker
ific
Assignable
▁arr
▁Project
llp
▁tgllp
▁files
▁PlanNode
bar
FIN
▁chunk
yc
ResultSet
▁mi
Do
dl
Launch
▁master
FORMAT
Stability
▁fanin
▁ring
▁isInstance
▁123
diff
▁Bytecode
▁calculate
▁vo
Right
▁getCount
▁latch
connect
▁Retention
▁MY
▁times
▁readString
_34
Closed
▁ResponseBody
rv
Multimap
▁available
Secret
Any
▁getCause
olyg
max
hand
▁isThrownBy
Two
▁HttpClient
rypt
▁eval
Wh
▁Jar
▁isAssignable
▁Rout
▁SqlType
▁getPort
▁Endpoint
▁resultSet
func
NumberOf
▁getFirst
▁mm
RESS
▁auto
▁Authentication
▁getOr
Replace
Raw
▁HttpResponse
Day
unity
Blob
▁toByteArray
Sources
cont
BUTE
▁clock
urrency
Setup
aterial
▁network
ignment
Props
tml
11
ERO
▁loc
Common
DataTypes
▁Q
▁jar
Charsets
vg
ATCH
eometry
ano
TRIBUTE
Rece
Multiple
▁checkpoint
▁destination
BO
scl
▁gp
LEAN
▁SSL
▁editor
▁Recipient
Has
Bootstrap
▁progress
Sender
cn
▁toXContent
▁getNext
Syn
ramew
▁Header
Configurer
▁allArguments
▁UI
▁pr
ramework
▁kind
PERTY
Big
▁css
Dispatcher
▁AgentStat
ek
Requests
hz
▁jdbc
▁fromXContent
▁errors
▁ends
filter
▁scale
▁converter
scap
▁Slf
Contents
▁allocate
Spot
▁route
▁Serialize
▁Snapshot
▁mk
Commands
1105
OUBLE
oneId
encies
▁selected
cision
Appender
HttpResponse
INDEX
▁SQLSelect
▁isDebugEnabled
Allocator
▁Init
community
▁Ident
▁Rx
▁willReturn
▁priority
▁bound
fc
Processing
▁pdb
Rew
Arrays
▁500
▁JobID
ttachment
▁Example
▁single
▁endsWith
mx
RM
ributed
▁branch
▁Extension
▁HttpRequest
▁CheckForNull
COM
▁cMemory
▁cMemoryOwn
Watch
Actual
ResponseProto
moting
▁DruidDataSource
▁getResponse
TEXT
avior
Renderer
▁trigger
▁PRE
▁failed
Accessible
Cast
lack
cho
▁DataInput
▁hel
▁HTTP
▁changed
▁Instruction
ane
qe
ITH
▁emptyMap
▁MYSQL
otSpot
SETTING
▁NodeInfo
amer
▁Open
ressor
ampled
▁getUrl
Cpu
▁Repository
▁device
▁convertTo
ulation
Matchers
Send
DEFAULT
▁receiver
▁prime
Receiver
Partitions
Cursor
legation
▁Driver
▁lower
Breakpoint
▁startTime
▁restore
▁getTest
Updater
Discovery
▁ETH
▁ClassNot
rr
▁Setting
ATTRIBUTE
▁SUPP
ysical
▁Reactive
▁Scheduled
ied
▁cook
Handlers
rpc
▁KeyValue
▁system
▁Rec
ALL
Hook
ManagerFactory
ise
▁regs
Edit
▁nonNull
▁OK
▁Gdb
sda
gest
lain
▁POST
trl
Operations
▁MySqlSchema
ArrayEquals
▁loop
▁InputType
▁0.5
clus
Customizer
OPTION
▁head
Period
DFS
asm
▁>>>
▁pending
kg
ian
safe
▁getExecution
TENT
▁xContent
▁DataTypes
Blocking
RuntimeException
UTH
▁getList
ertx
▁activity
▁Intent
_000
▁PathFragment
QueryBuilder
▁Rect
▁book
Nanos
Modified
▁RM
▁Member
uffers
Db
Mgr
arning
▁Partition
types
▁connector
▁push
▁Embedded
▁Clazz
OM
auge
Extra
▁reduce
▁gen
▁setB
▁Content
81
▁Split
▁getTotal
▁NE
ITION
Unknown
▁Constants
99
▁Offset
ABLED
WebSocket
▁Msg
▁Package
RC
▁ha
▁rpc
dicator
▁Persist
Comb
AndSet
▁panel
▁getRuntime
▁ok
Walk
imeType
▁Load
Depth
▁Dummy
Serde
Slice
▁Grid
▁Ghidra
▁putAll
Lifecycle
HttpClient
irror
CI
▁fact
ural
▁lines
▁charset
ratch
Verifier
TIMEOUT
ArrayList
▁scheduler
Flush
▁policy
History
▁forName
▁Provider
LIENT
▁getTask
▁setDefault
orary
▁primary
▁AddressSet
ExecutorService
sck
Calc
atible
Sync
start
▁impl
▁flow
logy
▁XPack
Functions
WebServer
▁LongValue
aching
▁nextToken
▁adv
uredTarget
Threshold
▁cb
Reason
Idle
▁fl
▁os
unded
STAT
imiter
OFF
▁getOffset
License
▁COMP
Inputs
PARAMS
Begin
NULL
DER
IST
▁Qu
▁GetMapping
ACHE
▁Graal
CTED
Accept
requ
▁COM
▁Anim
▁upd
▁ClassPath
__
▁For
▁Temp
▁diff
checked
▁onFailure
▁contentType
OLEAN
▁Word
▁Structure
Completed
tag
LONG
Visit
▁Core
SY
▁14
▁frag
Super
▁fileName
ca
▁Leaf
ycler
Sl
adow
▁Compiler
▁plan
Ins
CEPT
HttpServlet
▁Timeout
cb
Live
igration
▁NodeClass
orator
Home
Times
Singleton
rowser
Gen
▁Parameters
eet
▁DOUBLE
TA
▁found
▁getRoot
Family
Routing
Convert
▁setString
▁interceptor
▁inject
Realm
Optim
Sorted
Parallelism
▁ToXContent
oned
Device
▁Branch
▁card
Clean
precation
01
▁Select
xFF
▁real
arison
▁Types
▁SqlSession
83
formed
ja
later
AttemptId
err
apsed
▁Nonnull
etht
ethtool
▁selection
Implement
▁ct
ensor
VALID
Capabilities
Named
▁JUnit
▁viewable
Animator
▁VALUE
Opt
▁drv
▁setV
Counts
▁Import
▁Reflection
ATED
LINE
▁getBody
▁getQuery
Behavior
Immutable
▁As
▁dump
Allowed
▁NOT
▁IS
▁flag
legationToken
▁setF
arness
DD
ids
Logging
mux
▁wifi
Summary
inct
TERNAL
Reduce
▁example
▁getBoolean
tax
▁Parcel
▁nr
▁Meter
▁Generated
▁getActive
strumentation
Catalog
▁isSame
enableFuture
▁band
▁isIn
length
▁art
▁low
▁arraycopy
Rpc
bytes
▁holder
Boundary
▁LocalDate
▁ExportMessage
loader
Aspect
ediate
Foreign
entry
▁OracleSchema
▁incrementAndGet
Toolchain
bench
▁Health
FieldType
SA
Collision
Area
Increment
Docs
▁Shared
MI
▁Part
Watcher
▁ssl
Leader
ensitive
▁customer
obile
▁edit
Checksum
▁getDataType
Character
Containing
▁getLabel
Invoker
FT
Ok
▁opt
ready
▁60
▁decoder
▁Cancelled
▁scan
▁ContextManager
init
SERVICE
BeanFactory
idden
▁STRING
▁separator
▁Thrift
Show
less
GROUP
timer
▁safeGet
▁tags
▁cached
omic
Operand
Dependency
Background
ASS
COMP
▁Netty
▁singletonMap
▁chain
ReturnValue
▁md
Called
▁Mapper
ervation
amb
Publisher
TypeName
ARN
Listeners
▁64
▁getLe
▁Drawable
qui
▁div
Mon
▁getX
EXT
▁package
▁employee
▁threadPool
▁Indices
▁vlan
Transfer
▁getMetadata
▁display
▁BeforeEach
Specification
Clause
Put
▁Typed
Watermark
shake
▁probe
band
▁loader
▁resolved
▁age
DIR
ializing
▁free
Points
Placeholder
▁DataBuffer
WR
vf
▁Batch
▁Yaml
▁aspeed
SPACE
▁MockMvc
vi
▁LIR
iming
present
▁JDBCUtils
emon
▁Customer
lank
Benchmark
Patterns
Separator
▁onSubscribe
▁Sort
▁features
stit
▁Values
▁Debugger
cknowledged
▁methodName
▁sink
Save
VID
xis
▁Bootstrap
▁jn
▁comparator
Reset
OutOf
Workspace
▁24
▁RxJava
Blank
amera
▁Fixed
▁BufferedReader
ips
▁Logging
ThreadCount
▁Aggregator
Define
ambda
▁Serialization
DATE
Other
▁labels
▁sdcard
vert
OUND
▁Histogram
▁Timer
▁Active
▁was
▁controller
Lib
tics
alled
Scanner
pan
▁Lock
anode
▁BeforeClass
AIL
▁drop
▁mc
▁edge
▁TableStat
icker
▁score
▁signature
▁columnName
vl
▁dim
STAMP
ploy
88
▁Parsed
chor
▁Fake
LES
▁getPosition
▁getSchema
SED
LIST
▁SQLName
roke
▁Texture
irq
▁np
▁sja
untry
▁mpt
Indicator
▁SUPPORT
▁absent
▁cp
▁mkdir
Segments
▁runtime
▁toMySql
▁toMySqlString
ipart
CATION
ike
jor
▁ExecutorService
LAG
Cookie
Loaded
URRE
▁getBlock
▁atest
Procedure
att
▁alias
▁rows
▁acceptChild
Accumulator
ssid
▁pt
▁setA
▁library
▁Setter
▁Vertex
Initialization
Negative
▁Collector
▁countDown
▁Menu
orization
▁getError
▁aud
Shared
▁worker
▁arch
alance
Initial
Conversion
▁pipeline
▁vif
ModelTarget
▁Subscriber
▁getSession
▁chp
▁Bulk
▁getGroup
asol
TableSource
▁Is
ENER
ping
▁getMemory
▁rq
ingAction
▁Unsigned
Import
Locator
Vertices
Structure
▁peek
▁running
RED
▁Descriptor
▁region
Animation
LETE
▁BOOLEAN
▁serialized
ictionary
▁beanFactory
▁BlockBuilder
▁All
▁Mysql
▁lib
▁Category
▁LE
▁Shape
▁one
Matches
▁concat
nd
▁GR
74
Fl
Gc
tten
ider
Include
▁Scheduler
▁CommonUtils
▁optional
UB
Compilation
Draw
Disposed
▁getFileSystem
ritten
Streams
▁scratch
▁objInst
54
▁email
▁Env
andra
▁setParent
uiltin
UI
▁unw
Decode
▁SUPPORTS
▁health
▁SpringBootTest
UTE
▁supported
▁DataOutput
▁Edge
gister
assandra
▁flatMap
▁ERROR
▁Regex
▁PrintWriter
▁inputs
tos
▁exclude
▁ThreadLocal
olation
▁setAccessible
▁ignored
ByteBuffer
Strings
Bundle
▁catalog
▁13
▁DATA
▁bb
▁createTemp
▁Language
tmp
▁lt
Reporter
Cnt
▁SH
▁fc
▁getSql
▁Navig
Configurations
Parsing
▁consume
ym
▁crc
▁pair
Compare
▁TestHelper
IllegalArgument
NODE
elf
▁Back
ASTVisitor
▁assertFunction
▁-=
▁ep
▁keep
▁ms
Finished
SCRI
umented
Seq
ByteBuf
▁getHeight
ChangeListener
▁Dubbo
▁speed
▁predicate
Estim
event
Fetcher
ref
ocus
▁AMD
▁bits
▁WebDriver
▁executorService
Upgrade
▁Compilation
TableColumn
rinter
ClickListener
▁FILE
▁Stamp
▁getLocation
▁Fs
▁bc
URRENT
_35
▁rece
▁Equals
ONLY
▁Template
▁Sw
▁longValue
Primitive
Channels
CreateTable
LIMIT
▁security
lex
▁Mongo
▁Failure
▁runnable
▁acc
▁diag
▁ctrl
▁Python
▁getSymbol
eeper
Then
▁CollectionUtils
secon
Harness
▁sl
▁eng
arrier
TestUtil
Drop
▁Publisher
ogn
Math
▁LocalDateTime
▁getJ
▁TopicPartition
▁ing
▁Unknown
▁USER
▁TypeInformation
▁SpanEvent
plica
TreeNode
Preferences
▁getClient
acon
▁help
▁hint
utation
▁core
▁Registry
▁em
▁PAT
▁ProgramLocation
▁INT
▁READ
imited
▁StringBuffer
▁GwtCompatible
vram
adi
Infos
▁publish
▁fromString
hw
ota
▁emm
▁getProgram
Basic
BUFFER
cut
▁One
▁parts
▁by
▁emmc
Notification
▁GL
▁DataSize
sclk
ous
▁sg
▁Gson
Volume
▁ns
▁Linear
lias
Center
UpperCase
▁Exasol
23
▁mb
ways
▁encoded
▁qp
▁BeanDefinition
▁MockHttpServlet
▁Dependency
OfLengthBetween
cce
Thro
▁setContent
reset
▁Mod
▁getMap
cheduling
Workbench
▁LogicalType
atency
ling
API
IES
▁ServiceType
Ne
▁IM
ARD
▁prop
▁reply
▁DBSObject
▁blockBuilder
▁signal
Pane
▁directory
PostProcessor
▁events
▁drawable
▁recipient
preter
compatible
▁Utils
▁style
cryption
▁agentId
MethodException
isc
▁exist
ampler
Started
▁packet
izes
▁best
▁Meta
▁OR
▁getStatusCode
▁HttpMethod
ialect
Head
▁intf
▁closed
▁fragment
▁where
node
▁cookie
76
rf
SSAGE
▁Store
Factories
▁jvm
▁High
CCESS
▁iwl
ridge
▁interrupt
▁Description
SOURCE
▁Start
▁Activity
▁toJson
Locations
▁setStatus
▁dp
▁icon
Numeric
Resolution
▁big
rithm
▁identity
CTOR
Cancel
aker
▁getOrderBy
IntegrationTest
Form
▁chip
ynamics
Follow
▁listeners
▁writeLong
entic
▁anim
sk
lib
Invoke
ociation
▁Converter
▁ROOT
Can
▁nano
▁Listener
▁Retry
▁assume
Platform
ich
▁Monitor
DateFormat
▁MysqlTest
▁Discovery
▁constraint
▁Interop
▁stmtList
▁TestException
isor
▁binder
Effect
erator
awn
reater
drv
▁sq
SSION
Promise
Redis
▁engine
▁getWidth
Pass
Terms
ENCE
ORTED
trins
▁pm
▁Raw
▁Layer
▁onCreate
25
▁pg
Providers
CLU
Delet
Forward
Subject
rithmetic
Qualifier
Throwable
▁isEnabled
▁getMethods
▁Flux
▁stamp
PROPERTY
MX
▁bf
▁unwrap
ColumnHandle
nost
Secure
Managed
▁Notification
▁attach
▁digest
▁serviceName
lem
Book
▁setUser
Wall
▁button
ByDefault
onedDateTime
Exclude
Connections
▁getDisplay
rant
Counters
pcm
▁rm
HEADER
fuse
▁sta
Defined
LAY
afb
▁REG
▁npcm
▁setOn
raction
Spring
▁gpio
InputFormat
▁NestedSet
▁Priority
565_
Manifest
▁BU
▁HotSpot
▁getChildren
WITH
▁jtag
▁board
UNCTION
▁getProto
roundInterceptor
SWIG
Syntax
CRE
▁evt
Factor
▁hasSize
▁multimap
Skip
Stroke
▁DbType
▁authentication
▁leader
Net
_36
▁ba
Dependencies
▁formatter
9_
World
▁byteBuffer
Instant
fi
STATE
▁OB
Addresses
▁PrintStream
METHOD
▁Pinpoint
MASK
anks
▁Roll
Buffers
slv
Tokenizer
umb
▁Errors
▁transfer
vailability
oto
▁shift
WS
Instances
FE
▁sm
QUER
edState
Iterable
▁Scalar
process
Hit
ding
EventHandler
FormatException
▁Remoting
▁Writeable
Windows
▁randomFrom
agram
Yaml
resol
▁Segment
▁newValue
▁getAnnotation
▁operand
xture
SERVER
▁isInstanceOf
Pending
▁sorted
bw
Meter
▁reser
▁PathVariable
Machine
Inner
▁getSub
QueryRunner
REQUEST
opt
▁appId
Configs
▁decomp
▁histogram
▁Reg
uit
Decomp
BufferSize
▁eq
▁CollectionSize
soc
▁Cap
▁INDEX
▁getRow
▁setEnabled
▁addListener
ackson
Milli
Unique
▁round
Aggregate
peat
IS
imed
Clock
▁setMessage
▁TH
▁lexer
APP
ierarch
Multiset
Transformation
Pages
Containers
Defaults
atio
arity
▁ab
▁rsp
▁onResponse
▁ne
currency
▁Ssl
▁redisson
021
Registered
FileDescriptor
DelegationToken
▁1.
▁Stats
▁bootstrap
▁getTransaction
Cycle
▁Worker
▁Product
StatementContext
▁nodeId
ULE
▁retain
▁XContentType
▁AN
▁subscriber
▁Jvm
ParseException
▁JPanel
▁RequestParam
_2_
Tables
▁resources
▁Structured
▁Callback
▁Codec
Getter
▁FileInputStream
rypto
▁binary
▁mkdirs
Contract
▁Sentinel
▁getResourceAs
strate
▁inc
▁validator
▁fn
▁freq
▁Directory
col
Public
Ord
▁25
Side
ircuit
▁menu
▁mv
Delta
aging
STE
ynos
▁Add
▁are
▁buckets
Comparison
▁collector
Relation
▁NullValue
Ops
rev
Find
▁getBase
▁ALL
EntryPoint
Demo
LOAD
Offsets
▁cleanup
▁StreamRecord
▁Det
▁STATE
▁depth
Nested
_8021
inate
▁unused
IND
Decorator
thenCorrect
lated
QualifiedName
ValueMap
sts
▁forward
▁BytesReference
▁pages
MsSymbol
▁getChild
Audit
▁Library
▁Fragment
rip
▁neg
▁parsed
▁setInt
▁JSONArray
▁some
▁Refresh
▁returnType
▁completed
ls
pology
▁combine
▁spd
cluded
▁1234
▁Router
▁fb
▁Bar
▁helper
LET
▁getOptions
Insn
▁indexName
▁contextRunner
Sign
▁NamedXContent
▁PRI
emant
BoList
Charset
sConfig
Detector
FactoryBean
register
▁fd
plain
▁StandardTypes
eries
▁outputStream
▁CRE
DED
Differ
▁OP
▁getSt
FileName
▁checksum
▁setColor
Contributor
▁Executable
ade
▁escape
HexString
▁getCluster
▁disable
OutOfBounds
▁17
▁TruffleBoundary
▁Change
▁clusterService
_40
▁Role
▁doesNot
ExpressionNode
obj
BYTES
▁throwIf
LER
▁bottom
Directives
▁ClassNode
▁Resources
uber
▁getY
▁broker
iber
▁license
nate
ibernate
▁VARCHAR
▁getValues
▁nested
ffic
▁Hdfs
▁Executors
TimeMs
▁opcode
ampling
DA
qtt
swer
▁DBRecord
▁Exceptions
▁isDisposed
▁login
cdc
▁candidate
▁SY
OfType
inality
▁beanName
Theme
Cached
▁upper
▁strategy
Reflection
▁iso
▁allocation
irm
ajor
▁Display
Alter
▁configs
azel
XML
▁assign
▁ah
▁groups
Distribution
▁Decoder
▁advance
▁ActionRequest
▁extension
▁Bo
Clear
issions
resolved
oom
▁peer
▁space
▁sz
jected
▁validation
BUG
CharArray
DocValues
▁toUpperCase
ikari
▁blob
▁SkyKey
CHEMA
Builders
Coordinator
host
Generated
orit
embly
OutputFormat
▁getComponent
Ev
udget
▁resp
OBJECT
▁SERVICE
▁assertNotEquals
Ssl
valuation
Push
losing
▁nic
▁rss
▁intent
▁getCache
pages
▁Protocol
▁TagNames
▁getInputStream
▁Lifecycle
▁dm
▁Paths
▁beacon
come
▁handled
▁Annotated
▁Allocation
▁getElement
block
▁Socks
▁getArguments
CKET
▁section
Scheduled
aterialized
▁Issue
np
Invok
crete
▁ResourceManager
▁go
▁Orc
lationsh
▁Nio
▁Wrap
▁attrs
▁encoding
▁cq
Advice
aN
lap
Escap
Upload
EventType
ATURE
▁Flat
▁blk
White
requency
▁dbResult
dent
OFFSET
interrupt
RecordReader
lict
▁mockMvc
▁aggregation
ExceptionHandler
PATTERN
ught
▁getEnd
bed
Alive
▁fromJson
▁getSystem
▁DataTypeManager
▁Controller
▁ApplicationId
NC
▁box
▁allowed
▁getHeader
▁DIS
▁StringWriter
▁New
Calls
▁shardId
▁Matrix
Translator
▁traceContext
sumed
Apply
Reply
ABEL
Distance
▁Demo
war
▁mcs
Barrier
▁MiniDFS
That
▁Free
Publish
▁toMillis
head
▁Nullsafe
eta
▁abs
▁phase
trinsic
▁filename
ffff
pooled
▁hadoop
37
▁zip
olyglot
▁TRUE
▁Substrate
Finder
sionService
Regex
files
▁patch
MessageConverter
▁INTER
▁millis
▁taskId
▁DO
Enhance
odifiers
EAM
▁roll
▁fire
Print
irected
▁TaskAttempt
mf
▁uv
Scalar
Annotated
▁rtw
▁getHeaders
ENABLED
sv
16_
KER
States
arshaller
plan
ticle
▁parallel
▁JSONException
▁realm
▁move
reaterThan
Restore
▁getRaw
pmu
▁dsu
▁tsif
▁opName
rt
ognizer
▁Dns
Matching
TestSuite
PropertyValues
sec
▁Secure
Certificate
▁MO
Locale
▁getDatabase
Chars
▁Alloc
▁COL
ployment
Round
▁bitmap
Padding
▁VirtualFrame
Cls
IGHT
▁Observer
bc
seconds
Analytics
▁AddressRange
gb
gl
_38
UMN
RESULT
▁getByte
▁TimeWindow
inger
▁getModel
509
▁dw
031_
actions
▁self
▁sign
MAN
ALEN
Inbound
▁detail
▁records
▁tc
ulated
▁capture
▁Instrument
Eval
Private
error
Encrypt
RowData
▁getFull
Exceptions
▁SP
Trust
LoopGroup
▁Duplicate
▁getContainer
▁getTimestamp
ACL
▁tp
rav
▁ActionContext
▁NoOp
▁mii
▁canonical
esh
Until
▁UIUtils
▁generator
▁shouldNot
Verify
▁HttpServer
▁UP
CHED
▁promise
gp
▁|=
▁dat
▁RestRequest
30
INFO
▁vht
ordinates
SUPP
▁Fast
▁128
▁aq
LOAT
vided
▁reverse
▁SET
▁android
▁tuple
▁LinkedHashSet
div
▁Weak
▁ALLOW
Original
IFI
▁Writer
Subscription
▁Deser
Disabled
▁IOUtils
▁getServer
Destination
alloc
▁flink
▁budget
key
caling
Closeable
ErrorCode
Heartbeat
36
Route
INTERVAL
▁UserGroup
▁Namespace
oss
Sets
▁Optim
▁identifier
ayment
▁Decimal
ServiceImpl
Pin
Contexts
Incompatible
TableHandle
PLA
Patch
netes
ubernetes
Splits
▁getSelected
▁BinaryReader
▁dao
sRequest
▁EnumSet
ServiceType
sta
▁NDArray
▁Expected
AndType
▁dep
▁spdif
▁Border
7816_
▁METHOD
▁DataInputView
Reach
Management
positories
▁using
▁nanoTime
CR
▁Soft
AndHashCode
▁LOCAL
Initialized
Walking
▁getPointer
▁isS
▁uim
▁LONG
▁JobConf
▁bin
▁Pipe
▁usage
Disposable
tf
▁Ac
NameException
Under
▁override
▁getW
▁construct
Units
aph
▁22
▁chars
FilePath
title
arnode
buffer
Returns
UTO
▁Student
ixel
▁cycle
inition
▁dubbo
▁findAll
spi
▁ofNullable
▁rtlpriv
▁compareAndSet
quival
▁exynos
References
▁LogManager
▁rules
▁backend
▁install
Fallback
tcam
ReturnType
avor
UNSET
▁setD
▁pause
▁getSec
BlockBuilder
ugh
Disk
Subtask
▁InMemory
Aut
▁PATH
VInt
▁sharding
FOR
▁Alias
▁blocks
MB
yclerView
▁JSONField
Ab
Numbers
▁Dispatcher
▁Stub
▁regoffset
▁Extended
▁statusCode
TEST
vals
▁Rel
▁CURRENT
acpi
▁RFuture
▁setTime
Font
▁isDirectory
Remaining
▁Wasm
▁replaceAll
ORDER
▁suffix
00000
▁under
agg
uccess
EqualTo
▁InteropLibrary
plicit
▁WrapI
Tracking
IOException
▁calendar
WebExchange
▁txq
▁generic
Markup
Packages
MemOwn
▁dynamic
▁swigCMemOwn
UTF
atis
▁TestBean
▁5000
Screen
▁getAnd
▁endVisit
Audio
▁uuid
▁restTemplate
Fatal
IALI
This
Composite
LS
va
Old
▁END
▁mut
Now
▁actions
STO
▁Slot
Interfaces
▁createRandom
▁iterations
Ready
▁JobVertex
iling
▁getAgent
▁assertResult
▁Mem
▁SWT
Router
▁emptySet
rates
▁cell
Encoded
▁RowType
679
▁users
▁Mapping
▁getParameters
lationships
▁ValuesSource
print
▁BytesRef
lined
Mirror
MsType
▁MiniDFSCluster
TRAN
▁existing
845_
▁sdm
btain
▁recv
CP
▁zd
Person
▁pass
▁Origin
20_
Branch
FER
▁adj
▁toSQL
▁pointer
▁hal
Stage
Calendar
Principal
yper
▁Comb
▁printf
rash
▁xml
▁getAs
rng
▁JavaKind
COND
MOVE
Edges
LIN
uc
Suffix
▁parseStatements
Src
Tab
CLIENT
ADDRESS
FilterFactory
ghz
ront
Recovery
▁getThread
▁executeQuery
▁StructuredGraph
pf
ORI
Fixture
▁readBoolean
▁clk
▁invalidate
▁getEnvironment
utex
▁SUCCESS
FieldName
▁isSameAs
ProtoFormat
Sm
▁Sn
Linked
▁selector
Constraints
chan
▁MemorySegment
ARCH
FrameAnalytics
adius
Calculator
Wrap
▁Acc
94
▁SWIG
▁isCancelled
▁99
▁DBPDataSource
Dig
reet
Ranges
▁Managed
▁getTrace
total
Tokens
▁attempt
▁SWIGTYPE
GC
▁secret
▁account
Implementation
▁gson
adlock
Failures
▁Broadcast
▁instanceOf
Added
vious
Abstract
Splitting
▁Blob
CallTarget
▁destroyed
▁RestTemplate
TEGER
PI
oj
▁keyword
▁doubleValue
▁setC
▁toCharArray
Site
ReadOnly
Beans
▁pd
Anchor
aled
▁Copy
▁Power
▁JsonObject
scan
▁Save
▁finalize
▁wr
BLOCK
layback
6797_
▁place
▁CONFIG
▁TestUtils
▁CH
▁cec
Readable
▁cc
▁Lists
▁busy
▁WebApplication
▁IndexMetadata
Move
▁setLayout
192
▁mon
Visible
▁setLong
StartTime
▁dataTypes
ovap
▁blank
▁kovap
▁kovaplus
▁80
rasure
▁objects
EB
Core
Dirs
mplete
▁Theme
▁getSup
StreamOutput
CACHE
STEM
NUMBER
Render
Rollback
ovie
▁setUrl
▁getItem
SizeInBytes
▁PdbException
The
▁pal
▁pl
Inflater
▁getCPtr
agic
▁HE
▁nor
lying
▁seek
Evolving
▁wrapper
▁getQueue
▁PublicEvolving
Parcel
▁precision
▁JsonCreator
ASH
▁SING
▁getRemote
ernal
▁used
▁caller
▁INVALID
▁Cassandra
parse
▁watch
▁addition
Login
▁Glide
▁Producer
▁RequestMethod
▁Body
▁ViewGroup
▁maybeInit
▁inOrder
Rect
▁Pcode
▁Unpooled
Req
Checked
▁encoder
TOP
STER
▁constructorArg
▁ACTION
Card
▁Transactional
oper
▁XML
▁DBTrace
▁getNumberOf
MT
orb
loud
▁Full
ConfigKeys
8_
▁getShort
▁structure
_37
xffff
Evaluation
Acl
▁getK
crypted
▁mpa
ivate
▁caps
Switch
VIDER
Nonnull
▁nm
isual
▁shared
Schedule
▁external
▁TIMESTAMP
ossible
▁safeGetString
Paint
▁CONNE
▁isNotEmpty
▁getProperties
MORY
CTORY
Ratio
▁Numeric
VENT
rssi
▁launch
Interpreter
35
▁rand
▁filters
AreNonnull
Concurrent
▁PrestoException
▁ONE
Termination
SV
ayers
ircle
▁fileSystem
Tuple
▁TextView
QUERY
mobile
mission
Retriever
▁instruction
EventListener
freq
pool
▁rssi
gtt
▁NULL
▁setKey
▁addLast
▁missing
Interactions
InstanceState
go
▁paths
embler
ircuitBreak
▁dimensions
▁ElementMatcher
nand
▁seed
▁Audit
▁usb
Assigner
▁MapFeature
100
DAO
packet
▁ULONG
cknowledge
▁ElementTypes
endor
Loading
ametric
▁annotations
otype
▁Perm
▁dispatch
TestClient
WebApplication
SM
▁Icon
▁rect
riteria
timeout
ADATA
partition
▁readLine
UNT
ATEG
Builtin
CEPTION
▁ByteSize
▁principal
▁Reservation
control
▁getPackage
▁Hbase
▁period
▁userId
▁created
▁ant
▁translate
ALSE
▁TreeMap
▁DBE
Export
ariant
vention
Err
▁Child
▁nvram
SyntaxException
▁createStatement
120
work
▁Invoker
▁columnIndex
ung
▁DBD
ByReference
filerConfig
FR
Axis
EXEC
▁TEXT
▁nand
ATIVE
▁Pool
IndexOf
▁AbstractP
skb
MESSAGE
Members
ojo
▁StarlarkMethod
▁SerializeWriter
PS
BIT
Creation
▁setType
agc
Popup
▁regno
▁getAuth
▁vm
▁oct
FieldMapper
poll
Mapped
▁Decomp
URLConnection
ryo
eded
hash
Callable
▁Dynamics
TargetException
▁TABLE
▁INFO
iration
▁pf
▁ACC
▁Blocking
▁artifact
USER
▁locale
▁getBucket
▁canvas
▁AfterClass
▁MockitoJUnit
ene
▁ec
▁invoker
▁standard
easurement
▁LogFactory
▁newArrayList
▁Bl
▁tid
▁Audio
Navig
▁BASE
▁contents
Fs
df
hy
▁Disk
▁Info
interface
drd
▁Html
▁Prom
▁schemaName
OLD
Activation
Observable
▁the
regs
ActionContext
BACK
▁Naming
entr
ravity
90
▁WR
Many
▁vector
▁DiscoveryNode
▁MethodParameter
xen
iphs
debug
▁AArch
periphs
▁netxen
▁Es
▁reuse
Construct
▁Evolving
TreeVisitor
▁openSession
▁ConcurrentMap
▁argumentsTypes
75
GE
▁PluginTool
Topology
Sol
Jdbc
▁Inf
OutputVisitor
▁unique
▁Publish
▁never
coped
Listing
▁StrUtil
target
Launcher
Fully
▁DynamicsJNI
aob
▁Interceptor
aque
▁256
Hive
▁getApp
▁Serialized
▁additional
ales
▁Arch
ExitCode
MissingBean
▁getCan
ursive
▁toHexString
▁getTool
ContextRunner
Adv
▁referenced
ResponseData
▁getTableName
▁RestController
YC
▁groupId
ood
▁setData
▁readNextInt
▁declareString
ring
Percent
▁define
PreProcessor
▁GwtIncompatible
VO
▁SL
Existing
▁Ums
▁withUser
▁ConfigOption
▁getResources
ectors
▁Primitive
SPE
▁isDone
Geo
▁nn
▁isOk
Intent
Dim
▁vi
izable
▁Mouse
Oracle
▁License
TableRule
Cor
cdev
▁hasText
tegration
▁getColor
Tx
▁Drop
▁Aspect
kyWalking
Ack
▁utf
icast
▁requested
▁createParser
▁addAttribute
mii
▁font
▁Encrypt
ValueArray
▁HystrixCommand
AUTH
▁SubCluster
▁ContainerId
▁Distributed
gi
▁Saml
Like
▁ServletContext
▁blog
▁ids
▁AddressSetView
args
aobus
▁setAttribute
DL
▁DW
URATION
▁PLogger
▁errorCode
DynamicField
ableBeanFactory
11_
▁qual
DataBuffer
▁18
CASE
source
▁unlock
▁encrypt
▁23
volution
vro
ttle
Maybe
PARATOR
Recover
ByteReader
▁jenkins
▁typeName
▁Cms
Wizard
AndPort
Once
▁dummy
▁lang
Triangle
easureSpec
▁getEntity
▁Catalog
PersistAction
optim
▁Keras
▁registration
eh
▁2000
▁FALSE
▁Cookie
cfb
Prob
antile
ierarchy
▁randomUUID
VATE
▁BYTES
▁suite
UNTIME
▁dbType
▁getNodes
HAND
rient
▁Datanode
PRI
▁At
▁TRAN
ILED
▁Identity
PrimaryKey
▁getCanonical
▁fm
▁qeth
▁obtain
▁instant
MXBean
▁INTEGER
▁heap
uggest
▁IMAGE
Resolve
▁produce
▁take
PlanNode
oscaling
▁JenkinsRule
▁CommonResult
Reser
Scheme
KeyValue
▁toSQLString
▁StringReader
KEN
aemon
▁getUri
▁255
▁guard
Bulk
mdio
other
GroupId
FieldData
▁PdbByteReader
▁onSuccess
IGN
▁BYTE
eeded
Unsafe
▁AbstractTest
dps
▁Bound
▁tasks
▁getImage
Serialized
▁2.0
▁ifr
Relative
▁OracleTest
Gauge
Have
▁insn
▁Clear
Connected
omat
▁Size
▁elapsed
CONNE
Restart
▁rts
oraryFolder
▁YarnException
orer
▁JTT
▁JTTTest
Callbacks
▁Mapped
ony
flag
fops
▁Net
▁pci
ocker
▁fieldType
by
▁RES
▁accumulator
▁19
Logs
ollo
▁mapped
Parameterized
ingerprint
▁bd
atar
▁FSData
▁Watermark
▁Acknowledged
▁Vertx
▁renderer
▁Paint
▁TBase
▁OBJECT
▁contact
Age
ooper
▁Cont
▁TaskId
▁Jdi
Terminal
▁getView
▁getToken
RestTemplate
ACLE
zure
▁Dep
ircuitBreaker
Startup
▁putInt
StateHandle
ANT
Users
▁DATE
▁Required
▁graphics
▁readValue
EE
▁pll
▁Edit
vState
MON
ude
▁bulk
▁ARRAY
▁Serde
▁nullable
▁supplier
MBean
▁tick
▁AG
▁VI
▁Rate
▁spring
▁hit
▁Connect
ibl
▁gf
▁pdata
TextField
rientation
▁getCommand
▁Constraint
▁mapTo
aringClass
▁parseLong
▁Integration
▁RequestBody
70
▁MQ
▁compression
▁toStringHelper
Em
bb
▁sch
▁Nodes
▁stage
▁MethodHandle
AMD
move
Profiles
▁direction
▁rel
▁Rectangle
▁Ordered
▁StackTrace
IDE
▁Ne
▁HOST
region
▁Execute
▁mclk
OrEmpty
▁partial
mg
amen
estination
▁ArrayType
ros
▁tail
▁writeBoolean
Here
▁mdp
▁EOF
▁acquire
▁streams
DOWN
Grid
TASK
▁setSource
INFIN
▁Merge
▁Parametric
▁withMessage
▁errorMessage
▁bw
defined
ysql
Slots
issue
▁FileNot
▁isSuccess
erber
▁ClassUtils
▁workspace
▁TaskManager
Sampler
▁getPartition
ji
INDO
▁offer
▁padding
ValuesSource
▁OS
NOTATION
▁gt
erberos
▁Sm
itude
amenode
▁inputType
▁IntWritable
Uuid
lcdc
miss
▁chnl
▁ShardId
▁intercept
TaskManager
▁getFor
ResponseTime
qid
mod
Free
Adaptor
Handshake
▁metaData
▁FileUtils
lee
vex
MethodProxy
▁BiFunction
arge
shift
Hits
Aliases
▁netdev
▁ruleContext
▁Fed
Broker
▁getAction
tras
▁doTest
Migration
Extensions
gt
izers
INFINITY
▁compressed
FieldLocation
Arr
▁Forward
Delimiter
▁getPro
▁By
Broadcast
RequestData
▁putIfAbsent
writeSplitting
AYER
oice
▁rout
▁br
ookeeper
inedModel
▁getRecord
▁pol
array
▁Mqtt
▁effect
BR
EW
Func
sIn
▁Agg
▁DBN
▁JAV
vatar
Compression
ife
▁300
Shift
ismatch
▁retrie
▁Ok
▁Sms
▁legacy
▁Mark
ildcard
▁Docker
▁loaded
ITER
Warning
▁Bad
Recognizer
▁aut
▁Exit
OrNull
▁Insert
ripe
▁asMap
▁estim
▁getNew
Seed
▁deep
AndTypeManager
▁US
Into
sable
▁Snippet
▁getDouble
▁transition
otion
▁Stop
LocalTo
ANO
Stride
Buckets
Jobs
closing
▁CodeUnit
33
Jvm
SUPPORTED
MetricGroup
MessageException
▁GTreeNode
▁bridge
Privilege
mount
▁updated
Assertion
wq
enew
▁Push
▁always
▁bundle
▁getPlatform
ANN
▁FORM
▁nb
oogle
entries
NS
▁GridData
Encryption
DING
▁enter
▁addresses
▁ctl
angel
Snippet
gain
▁basic
▁TestCls
▁getPage
Soft
iner
▁TraceContext
first
▁mergeLocalTo
ince
▁html
▁composite
UriStat
uralNet
▁volume
Utf
▁Stable
▁hasMessage
ITIVE
Shell
Applier
▁CONTENT
▁definition
ighted
artment
▁toPath
▁aggregate
Foo
update
NonNegative
▁partitions
Availability
Printer
▁readable
▁AnnotationKey
uring
Flavor
▁ConfigData
PART
Backoff
▁IntStream
asl
Cost
▁Alter
Overflow
DBAdapter
Iteration
▁External
▁elementType
Border
ensity
▁Cancel
▁BuildEvent
1201_
▁getRandom
▁analysis
▁ClusterService
▁VTMatch
▁lazy
▁sdio
▁removeAll
▁targetType
RB
api
▁rnd
▁Phase
▁writeByte
Serializing
▁dfs
▁Url
angelog
IndexTemplate
▁RxJavaPlugins
BASE
▁writeBytes
▁cf
▁qos
▁alpha
▁Cursor
fit
▁90
▁uns
▁FAIL
Truffle
▁phydev
▁Reflect
▁getJava
Configure
gmii
Conflict
▁Assembly
Dto
Topics
▁Attributed
▁FileStatus
▁OAuth
522
ANDOM
plicas
presentation
clusive
Positions
▁setResource
Swing
▁filtered
Directories
▁containsOne
Self
alan
enant
▁Console
Dat
STORE
▁kafka
ircular
Tier
▁none
HA
unnel
cribe
▁Find
CpuLoad
▁SortedSet
▁clusterState
▁PropertySource
▁cx
Loss
Received
TOKEN
ourn
Encode
ReachHere
▁Modifier
_39
gree
hole
vision
CONTEXT
▁activation
SocketChannel
enet
▁getTitle
▁Compression
quate
DataMap
Virtual
▁Binding
▁privile
▁Verification
40_
▁blogic
Documentation
DU
rich
▁toBytes
IV
ROW
kin
tel
Timeline
Percentile
Resolvable
▁RetentionPolicy
▁WARN
ferences
▁gradient
▁getExtension
Ctx
obo
▁hd
idget
▁START
▁outputs
ReaderContext
dap
umul
▁cos
Nullness
▁createUn
▁filePath
▁duplicate
▁JAVA
Vi
▁fast
▁WebClient
▁Browser
▁setCurrent
▁AbstractPdb
Projection
▁Transformation
aper
Overlay
▁fallback
CEPTOR
▁setMin
ByExample
▁JSONPath
▁NamedWriteable
▁computeIfAbsent
sel
▁Acl
ah
▁fp
ializers
legating
ViewHolder
▁SocketAddress
ORMAL
▁pref
Setter
▁Merged
▁sources
▁locations
illed
olate
switch
▁verifier
▁getClassNode
▁Kind
WRITE
▁omap
▁touch
ToXContent
▁CLI
▁FORMAT
▁Convert
Protos
▁tokens
ValueFormat
▁Deprecation
pll
Deque
▁amount
▁unmodifiableMap
▁ops
▁Insn
Caching
DoesNot
▁Contact
CUR
BYTE
Endian
ournal
▁NodeId
Bytecode
SSL
▁Signature
FLAG
▁ORACLE
▁author
▁reporter
Answer
▁student
▁bufferSize
60
WOR
▁messages
lp
Compile
▁Selection
RESH
Fn
▁center
▁SecurityContext
VMP
QUEUE
▁Aggregate
▁rot
phase
Rewrite
▁methods
▁StringUtil
Captor
▁Clock
▁annot
▁maxSize
mtu
▁Down
▁setting
▁Identifier
LL
ross
▁DBUtils
▁getMeta
▁scroll
▁currentProgram
aze
csi
Seek
▁yaml
orbell
▁between
▁binding
▁NodeChild
cepted
disable
▁RestStatus
▁writeValue
oops
▁merged
Fraction
Versions
del
▁AUTH
Injector
Positive
▁hasMore
member
▁SQLObject
Focus
▁RUNTIME
auth
etter
▁arcfb
complete
encer
▁Fail
ategies
Highlight
rofit
JSONParser
▁INIT
Registers
ElementException
▁rr
▁TOP
▁red
Escape
Ordinal
▁DockingAction
28
128
icode
▁folder
▁latest
▁archive
▁isBlank
▁KeyStore
▁DBCException
Sy
OUN
5229_
▁Runn
Carrier
Emit
Inline
▁Inner
▁readLong
StatsAction
ANGE
▁Car
bing
▁owl
▁TargetObject
ializationSchema
Dialect
LIR
▁swap
13_
Real
anceled
▁AT
▁Hikari
Equality
rm
TUR
▁ce
abbit
mlink
Queries
▁remain
▁Evaluation
full
Activ
▁Main
▁assertNo
RS
▁mean
Retain
ICT
▁ER
aven
▁setOutput
ThreadLocal
DF
default
Exporter
uar
▁LLVMP
Emulator
_1_
Vars
▁fid
▁pipe
tage
▁Material
▁readObject
▁SchemaTableName
▁Unsafe
Alignment
▁inputDataTypes
ird
▁sky
iso
▁reps
▁Datagram
▁Dimension
▁MET
▁slow
grees
▁roles
orities
Validate
▁SQLParser
▁simpleMethod
inker
▁Diff
▁serviceType
▁ge
CHECK
▁OPTION
▁findFirst
▁NEW
loaded
▁SqlNode
▁doParse
▁mul
TOCOL
archar
▁receive
Combo
▁btVector
▁rid
atory
▁CLASS
Partial
▁Analyzer
▁WebElement
▁Cell
RowKey
iagnost
▁determ
ThreadFactory
▁elasticsearch
▁IP
Email
▁entityManager
ctx
sist
Merged
▁getLine
▁ParseException
Pr
zip
master
▁quote
▁httpClient
45
Processed
StateStore
▁valueType
▁servletContext
Black
▁cxgb
▁Varnode
chip
uplex
▁dispatcher
ern
intr
▁Font
AgentStat
▁indicesOptions
caps
▁cci
Inference
▁setInput
DR
Js
Datafeed
▁routing
▁router
▁Listing
FAIL
TROL
Typed
▁rank
▁matrix
▁Control
▁Streams
▁finished
▁afterMethod
▁ByteSizeValue
stop
SCHEMA
Redirect
▁asc
▁byteArray
ServiceAccount
▁RowExpression
BY
▁unknown
Instrumentation
▁eep
Quota
agers
panel
THREAD
FUNCTION
TableModel
Partitioner
▁buff
▁NodeClient
LOB
Cipher
▁Share
▁Unchecked
coex
Mocks
adline
▁addTo
▁Ab
▁tsf
AdminExt
▁threads
▁setTitle
Permissions
▁setDescription
AndView
ExceptionOfType
delta
▁toURI
▁tester
Me
▁getSc
▁DBSEntity
▁StaticObject
▁JSONSerializer
▁21
leas
▁cmdq
tee
▁DEBUG
▁callable
▁ttl
Tracing
PropertyName
▁TypeParameter
▁Be
▁scheduled
▁unregister
▁CommandLine
▁dtm
Kafka
▁goTo
SelectTest
rar
▁eps
▁scanner
ObjectArray
▁Management
BlockingQueue
proc
ooser
UNKNOWN
▁Kubernetes
▁Has
actor
esafb
icted
▁napi
handler
▁Persistent
Symbols
▁rewrite
olygon
▁beforeMethod
▁applyTo
▁relative
Tmp
▁cck
alone
andalone
▁percent
▁CanIgnore
▁Hel
▁fixed
▁assertGet
adx
▁FLOAT
Extract
▁Geometry
▁platform
▁batchSize
▁remoteAddress
zz
▁writable
813
STATUS
PoolSize
Attachment
▁crb
▁mail
icates
▁providers
▁queryRunner
▁ee
Tile
▁splits
gen
with
▁counters
▁ExecutionConfig
Sorter
▁inflate
▁Tags
▁vertices
▁Ml
▁dn
▁NET
▁iss
Indexes
▁getOption
▁ApiOperation
▁TypeReference
VAR
▁te
▁align
▁oldValue
▁connectorId
TEMP
Aggregations
▁getSp
▁DomainFile
▁Encoded
Trip
HANCE
Bottom
▁RANDOM
lipboard
Sent
ehicle
▁edges
lectric
alformed
▁Hadoop
cii
▁hive
▁zero
Training
▁nullValue
Html
Provided
▁Replace
bose
▁AsyncContext
It
bum
▁Dex
▁Pms
▁isP
▁ppos
family
CONTENT
▁DisplayName
ICS
▁LEN
▁ROW
▁Account
fl
Quote
▁BitSet
Distinct
▁ObjectParser
▁throwIfFatal
XY
NONE
ixmap
▁area
atableValue
▁Loss
Collect
ScriptField
▁performRequest
Bin
▁isA
▁DataOutputView
▁DELETE
LISH
Insensitive
▁MockServer
▁SpringJUnit
▁33
▁PDB
▁cam
▁minor
obolectric
▁actionFilters
aim
▁Black
Samples
Updated
▁Helpers
sht
▁ARG
LCASE
▁hints
▁integer
▁getConstructor
Dex
▁gc
▁may
▁Distro
GIN
MAR
msr
▁weights
▁getBuffer
▁callSuper
▁pid
Synchron
gression
Evaluator
▁ResultPartition
bgn
ashboard
▁JSONReader
▁audio
Singletons
TestRunner
▁Digest
▁Persistence
▁MAP
olicies
Estimate
SubCluster
RestHandler
▁tri
ANNEL
Attempts
MQAdminExt
▁ws
iator
usbdrd
▁Chunk
Rep
test
▁DAY
▁vertx
Logical
BeanName
OrBuilder
683
VEL
Pooled
Preferred
▁ElementType
▁setApplication
Org
Serializable
START
store
▁hostname
GroupRange
▁setBoolean
▁Lazy
cessary
▁subtask
▁setField
▁BeanFactory
DIRE
Balan
▁DomainObject
▁JavaConstant
▁Normal
wi
▁Lot
omcat
words
oreground
▁Enumeration
▁getConf
▁generated
▁getDisplayName
PLACE
Touch
query
▁Heap
ApiKey
Handling
WithNull
▁analyzer
ForeignKey
▁PowerMock
Concurrency
▁CP
▁POS
▁getMapper
▁credentials
ClientFactory
luent
Strict
▁createTable
▁objectMapper
uzz
▁iface
▁0.1
astore
devices
▁ActionType
▁tgt
▁Fetch
▁testHarness
▁click
OrderBy
▁Jackson
answ
▁Use
orized
▁toInt
▁describe
Association
DataSetIterator
rict
Force
▁Logical
done
oted
probe
mediate
▁Privile
▁enqueue
▁FlowRule
▁MenuData
fail
assoc
Thrift
▁regex
Statistic
▁AccessLevel
loor
▁JNI
LOCATION
▁RecyclerView
evt
▁phys
▁Sampled
▁strings
▁pkg
Managers
Visibility
ChangeEvent
Completable
▁getListing
▁HelpLocation
Bad
erived
inated
LATE
_8192
ASSWORD
▁getProxy
▁getPassword
▁PROP
▁Alarm
GSTRING
▁Hosted
▁Secret
▁minimum
ANNOTATION
cdn
▁hi
▁Resolvable
▁btCollision
▁currentState
▁getReference
NN
Year
ArgumentResolver
▁vid
▁SerializeConfig
▁leaf
DataNodes
Capability
RST
vif
high
ubject
▁backing
▁firstName
Squ
crc
REMOVE
Deleted
moji
▁tcp
▁Terms
▁getWindow
▁Multimap
▁JdbcUtils
sd
sr
▁mutate
▁getFilter
▁expire
▁Federation
pel
▁decrement
▁DataStream
▁convertFrom
REC
ely
▁sn
▁tf
ocab
▁TreeSet
▁Extractor
▁SpringRunner
aligned
▁MessageQueue
RPC
▁bi
AGER
banks
▁isClosed
▁getOperator
▁MethodSource
UST
iet
▁Video
Escaper
Through
IndexMap
▁PRIVATE
▁unt
Android
▁Tri
▁With
▁OptionValues
HTTP
pied
Modify
anization
▁bytesRead
sFor
▁car
▁LLVMAMD
agp
msi
tob
▁li
gers
umption
▁setLast
▁agp
SCHED
▁Include
InterceptPoints
pd
zen
▁dl
▁nt
Duplicate
Performed
▁lastIndexOf
▁restRequest
DAT
▁Exec
OUTPUT
InMillis
ErrorMessage
▁RecipientId
▁sqlStatement
10_
rozen
eighted
▁isRunning
▁ConstantNode
Peer
▁efuse
TAG
depth
Convex
▁getGlobal
QUAL
▁sent
Dispatch
▁TestLogger
ServletContext
▁bm
frag
▁zoneId
sal
Leaf
▁tim
iness
vsync
▁expand
▁tokenizer
▁notification
▁spy
Assignment
▁getFormat
ParsingException
Month
▁Watch
ditional
▁overflow
▁newRecord
▁Forwarding
▁ActionFilters
csr
▁Grpc
Direction
CacheManager
tgt
▁Asc
▁epoch
▁algorithm
Naming
handle
92
LEG
lJob
uncate
▁Substit
xlJob
▁mdev
▁Plain
Previous
Deployment
▁parallelism
UNN
▁ToString
▁getSelection
▁CREATE
▁verifyNo
unted
▁Loop
▁black
ayments
▁Canonical
▁RestChannel
▁assertQuery
NonNegativeLong
▁StreamExecution
▁only
▁Score
▁tables
▁Trigger
▁getFrom
▁FileDescriptor
▁meter
▁runner
▁threadId
917
Occ
instance
▁Pipeline
▁processing
▁statistics
▁ObjectUtils
rain
▁appender
▁ALLOWS
▁dataId
any
▁needs
▁redis
Capture
▁Checksum
▁getException
▁urls
PARSER
▁rename
▁mr
▁isNullOrEmpty
Union
▁MULT
▁milli
▁TypeDescriptor
Tools
▁paint
CacheKey
urse
▁ACT
▁STAT
▁ndev
▁warning
Convention
RT
Pull
uiltIn
▁trust
▁Pending
▁getJSON
interruptible
hal
HOST
INER
▁Send
▁terms
▁permission
▁details
Intrinsic
▁timeValue
▁NacosException
▁ath
Caller
Receive
▁writeObject
Compatibility
oggle
▁randomDouble
pull
Least
ident
▁Master
SIG
Mount
Geometry
▁Fi
OKUP
Frames
RESOURCE
▁SETTING
▁KeyEvent
▁ChannelFuture
paddr
NodeId
▁doorbell
▁createSchema
sters
▁export
▁HRESULT
▁JsonNode
▁Progress
▁createNew
GENER
INARY
AMETER
▁texture
▁loadClass
pause
▁Round
▁equal
Written
rightness
▁BiConsumer
▁HA
retty
Outcome
▁MINUTE
▁Jadx
▁MBean
▁Return
▁subject
▁readByte
▁TemporaryFolder
▁pic
CODES
Generate
▁commandLine
▁getMinAddress
StateDescriptor
emaph
emaphore
▁LongWritable
▁rb
▁hex
radle
▁Unary
▁checker
ErrorHandler
HealthIndicator
atter
▁bssid
▁eeprom
▁getStream
▁Sets
Committer
IGH
onic
rgmii
quired
Changes
▁ResponseTime
RATE
▁cat
LEMENT
acle
acters
▁getAccess
stricted
Parsed
▁CLIENT
▁retrieve
▁randomValue
▁getMethodName
59_
adio
▁bufp
▁findBy
▁AutoCodec
▁factories
▁outputType
▁TypeComparator
clock
▁Track
Scheduling
RequestBody
DK
gener
▁guards
Flat
MAIN
cache
Bi
▁Mpt
▁mid
Credential
Strategies
▁dot
cached
▁Disabled
▁cn
ault
▁RED
▁upload
▁iteration
▁lb
▁DWORD
Different
MemoryContext
▁ddr
Filename
Recipient
Decision
enticator
▁EV
▁mappings
▁programClass
me
env
▁IR
Undo
Outer
▁setContext
IR
tp
men
▁rng
invoke
Indexer
laylist
▁commands
▁rollback
InputSplit
▁powerlevel
Dev
▁byteBuf
▁underlying
Adder
swing
WebServerFactory
▁getProject
▁toMap
Asserts
▁ENHANCE
▁LIRInstruction
21
▁3000
Expired
▁Engine
Specific
▁logging
▁physical
▁addAction
▁setPassword
▁Os
THER
Player
▁Hello
▁getFactory
RecordNumber
fgc
▁Def
apler
▁ReflectionUtils
cts
▁uw
▁RESULT
Append
▁Username
▁processed
▁ArrayUtils
▁replacement
48
▁Eql
▁stride
▁brightness
mem
VLong
▁slave
▁setState
SPON
ocksDB
HANDLER
Authority
Candidate
SCRIPTION
▁assumeTrue
▁XA
▁Max
AsMap
Video
losure
number
▁Shell
▁virtual
cceeded
▁RuleDefinition
▁lcd
▁outer
▁union
dicates
▁Player
Assertions
▁ImageSingletons
Dep
Gate
Less
blank
▁PO
▁same
Needed
▁listing
eros
Gradient
ALI
Void
FOUND
▁CACHE
▁getMetaData
chunk
▁player
▁Position
▁TestObserver
Legacy
▁Uninterruptible
btf
▁mf
▁rg
atial
▁lbtf
▁getLeft
▁manifest
iw
ten
Weights
MeterRegistry
icit
Const
▁Chart
▁setRe
▁matching
dw
blem
▁Dialog
▁BufferedImage
ILD
SUM
caught
Quality
▁toFile
▁Gravity
▁structField
▁indexSettings
Hip
▁jni
Hipster
Classpath
PERT
impl
iveC
Coding
ApiVersion
ynchronous
▁threshold
▁createFrom
Configurator
▁Cre
overn
▁Invoke
▁Promise
▁SourceType
▁persistent
▁FA
▁ack
▁AUTO
▁Comment
▁InputSplit
Destroy
▁uvesafb
▁probeinfo
ose
▁400
▁SCM
▁fmt
Keras
Stored
▁Azure
Removed
▁Delegating
▁AbstractSpan
▁AutoConfigure
akes
Alarm
▁camera
▁jsonPath
▁SQLASTVisitor
▁ti
Minute
Substit
MoreInteractions
COPE
▁maximum
Detect
SPONSE
▁setVisibility
▁baos
Injection
seq
EVENT
▁redirect
▁powerbase
▁viewer
▁registered
Ordered
▁Release
Successful
▁ca
▁ints
▁SERVER
▁ppower
▁statemen
▁ppowerlevel
Prop
Maker
ullet
▁Asci
Python
overnance
▁textView
▁getActual
▁setParallelism
TS
Days
ifes
Spark
▁paramAs
ranted
pol
▁isG
Amount
Hierarchy
▁BorderLayout
Plus
avail
▁BLOCK
mmediate
enticated
▁toImmutable
▁EmbeddedChannel
aration
▁Gateway
▁StepKey
▁points
▁FileHandle
Sys
▁cy
▁Timed
▁IWorkbench
98
▁scheme
▁delimiter
▁sas
▁cdev
▁ApiModel
▁subtract
▁AfterEach
200
▁Rollup
▁download
▁clusterName
▁DFSConfigKeys
IF
Degree
▁Remove
▁channels
Inv
▁FIL
inity
Latency
▁getCap
▁NodeView
Converters
quivalence
▁AD
▁walk
MEMORY
pinmux
urface
▁AccessControl
▁MessageDigest
AF
▁NaN
▁avg
▁proc
▁indent
▁REQUEST
PR
ONT
▁bad
Words
▁JdiModelTarget
152
▁lastName
▁RecordNumber
Hal
lable
COLUMN
isited
▁createFile
▁readUnsigned
Mac
▁HT
▁ADD
▁getAss
▁General
Framework
▁Robolectric
▁lastModified
▁ThreadContext
▁Pack
emantic
▁withDescription
▁getCo
▁TreeNode
▁readFrom
▁Completion
UnknownFields
▁echo
VALUES
▁STRICT
▁Multiple
▁HttpHandler
▁ServletRequest
▁SDK
inner
▁Mime
▁xfer
OtherThan
MarkupItem
ByPrimaryKey
Perf
spec
stamp
▁words
▁Opcode
Employee
PROTOCOL
ENTER
range
STREAM
INSTANCE
SEPARATOR
Snapshots
▁Messages
▁multicast
▁executable
DEFIN
Shader
▁getRead
▁hasSingle
Optimization
▁Accumulator
▁Cmd
▁stub
ilon
▁fix
▁Extend
▁rfpath
FFIX
▁ANY
▁bool
▁Author
Artifacts
Necessary
▁createTempFile
INIT
Mesh
▁depend
▁Parsing
▁numBytes
▁AttributeSet
▁ColumnHandle
▁isD
Light
Generation
Processors
▁SCp
ACTION
configs
Ordering
StringValue
Authorization
BEAN
▁isF
ernel
▁Stapler
WithException
▁Canvas
▁Sparse
▁snippet
MethodName
▁timeWindow
▁targetClass
EvalVisitor
SourceSplit
▁Certificate
▁mth
LETON
entrant
▁cycles
▁bandwidth
▁setResult
▁MultiLayer
▁startIndex
▁Stomp
▁hidden
▁Datafeed
▁getDriver
▁getChannel
▁Wh
▁imx
atural
scribed
▁Activation
TaskExecutor
▁getSettings
▁ModelAndView
▁IntegrationTest
HR
▁pri
Outputs
iveData
▁adjust
▁offsets
Comparable
▁Iterables
PropertiesSet
▁getAndIncrement
72
oler
TextView
▁Describe
▁JobManager
Wr
Plain
▁major
▁indexer
EXCEPTION
▁ResolvableType
▁mbx
Lambda
DataSender
StyleProject
0001
quet
▁getOrDefault
▁pa
LINK
client
Retrieval
▁IndicesOptions
mutex
▁Shadow
Username
▁restart
input
Replica
▁JsonIgnore
▁checkpointId
▁pow
Detailed
Reserved
DT
▁TRACE
▁aspect
▁Scanner
Dimension
▁getRight
▁isActive
▁getLanguage
▁MR
pass
urer
▁INPUT
▁hasSingleBean
▁IT
▁ie
▁doIn
Cleaner
▁TreePath
▁getOwner
▁normalize
▁26
field
▁ports
pattern
strings
▁Malformed
STL
bitmap
ProtocolValue
▁parameterTypes
Low
misc
▁ovl
▁Stage
▁samples
▁Deferred
▁DebugContext
Jpa
Roles
izz
▁setG
▁Limit
ifespan
Download
▁userName
mous
onymous
ViewModel
▁character
CA
xf
▁ISO
▁uwb
Mouse
Parts
▁Mask
▁getFrame
HelpLocation
▁getListener
▁putLong
EventLoopGroup
imate
▁GROUP
▁packageName
▁getNamespace
allow
▁klass
▁Visual
▁getInfo
▁MultiValueMap
▁actionPerformed
ARGET
ToLong
▁Delay
▁sizeOf
▁dependency
▁getAttributes
▁pb
ISTR
oral
▁HTML
▁copyTo
▁rtstatus
omatic
TypeHandler
FactoryBuilder
Fill
nemon
▁Arithmetic
▁OkHttpClient
38
Colors
▁audit
PERTIES
Balancer
Retention
▁transformer
ProcessingTime
FIL
INPUT
ather
Limiter
▁getNamed
hip
trng
Flowable
▁Capabilities
NAM
Codes
ockJs
▁scalar
Buffered
▁readableBytes
EOF
Caps
▁reject
▁getArray
▁SQLEvalVisitor
Tip
quential
▁overlay
▁testSet
▁newFixed
▁getUsername
▁propertyName
Stmt
▁sys
▁xdr
▁MODE
Rename
Shadow
Solver
Console
Install
Extended
BarData
azelcast
AttemptID
Pref
video
HighLevel
▁AutoCloseable
anded
Debugger
Relocation
▁SINGLETON
ws
Com
▁masm
▁strict
Replicas
Serialize
▁distinct
▁LinearMath
inu
▁td
ivot
▁boot
▁world
ConstructorArg
Slave
▁Echo
▁adapt
Rewriter
Starlark
enticate
DataStream
▁Hibernate
▁primitive
nx
SYNC
▁rep
Hello
▁Dump
Pkg
▁px
▁ENG
▁cqe
▁xid
Pixel
fully
▁Admin
▁ResourceFile
▁applicationId
▁ServerResponse
Timing
itives
Savepoint
▁toDataType
ThreadExecutor
counter
Executors
▁stringset
▁valuesSource
RU
NAP
UMENT
iface
▁HIVE
LOOKUP
▁Proto
▁transactionId
sm
tek
▁pins
osable
▁mysql
▁getenv
▁setSize
▁distance
▁nextLong
IndexRequest
▁LinearMathJNI
▁doParseInstance
IntegTestCase
▁ClassVisitor
Io
rink
▁LEFT
▁Blaze
▁green
▁video
▁country
NotSupported
Deps
format
▁Epoll
▁Intern
▁SYSTEM
▁import
▁literal
▁Platforms
▁2.
Lazy
COLOR
▁Setup
▁navig
ObjectName
Whitespace
▁initializer
▁ltpc
▁Button
▁InternalLogger
256
DIS
PIN
▁rtle
▁IDENT
▁Lookup
Streaming
▁rtlefuse
▁FOR
Rollup
▁AutoValue
▁actionGet
▁MouseEvent
▁LLVMPointer
TestSuiteBuilder
MATCH
proto
▁Band
▁cipher
▁dataSet
▁getLAYER
Translation
▁Seek
▁plus
AgentId
▁getNative
▁ifPresent
BufferBuilder
▁Eval
▁nums
ivider
MANAGER
▁Multiset
ColumnName
▁Multipart
▁getStorage
▁getDescriptor
tab
▁nd
▁PREFIX
Reservation
▁subscription
Dt
Joint
ACKAGE
▁SqlParser
▁determine
ClassRunner
▁Transition
▁getRelative
InputException
AW
Graal
▁Spawn
orizont
▁dbStat
Discover
leasable
▁getLock
IndexName
▁Permission
▁DbgModelTarget
MAND
▁day
▁obser
Chooser
▁allows
▁Watcher
Submission
FunctionPipe
tle
Given
ipkin
Attach
Registrar
▁documented
xfer
Drawee
LoadedClass
▁assertContext
GRE
rand
▁mbox
readed
▁Chain
▁Adapter
▁readAll
▁getProvider
ACTIVE
▁targets
FailedException
▁isN
RIVER
▁disk
Series
▁getCreate
▁getParentFile
SUB
trig
▁acl
decess
reJoin
polator
▁copied
MetaInfo
▁jarFile
det
Actor
▁Interval
▁timeUnit
▁completion
IDS
atr
▁Money
TableBase
▁IntValue
FieldValue
▁getOriginal
FieldException
case
ATIONS
▁getSpan
Recoverable
▁EC
LABEL
orrow
▁Allow
IfNecessary
_41
▁cre
Nulls
conomic
Material
▁padapter
Probability
Fast
▁cmp
OLDER
address
edValue
vh
tie
enabled
▁extractor
▁Validation
InterceptResult
▁DocValueFormat
SHOT
▁Break
totype
▁setAs
Balance
▁mimeType
▁ExtendWith
▁getRequired
▁pi
CallNode
▁Literal
▁ofSeconds
▁background
▁setRequest
▁PER
lusters
▁ArgType
▁RxJavaTest
▁CachedLibrary
▁Ascii
▁hbase
Targets
▁doReturn
▁AggreJoin
▁NON
leigh
Calling
▁Render
▁Runner
▁getFloat
▁Percentile
▁getComment
lvl
AMPLE
MILLI
▁ITest
▁getDate
▁ReadOnly
▁recovery
Cfg
▁Sim
strict
Standard
probeinfo
▁ascending
TypeException
▁28
▁ulSrc
Coverage
WriteLock
▁combined
▁NativeTag
▁ShardingRule
LogLog
angled
profile
Dependent
yperLogLog
▁OptionKey
32_
Later
▁scsi
▁shuffle
▁DBHandle
▁clientId
▁setImage
▁WrapIDebug
▁licenseState
MY
ALY
armup
NAPSHOT
▁Broker
▁terminal
▁containerId
REF
kill
Specs
inite
Scoped
▁hello
▁toSet
reeting
▁omapfb
▁Payload
CompilerFlag
▁addCompilerFlag
PQ
aft
Klass
▁Ingest
emantics
▁ByteOrder
pid
▁ipv
▁crash
TimeUnit
▁codeAttribute
▁tb
Guard
raries
Consume
▁objectName
▁instantiate
Sky
pch
Adapt
FILTER
▁Reset
▁variables
Expressions
▁processElement
Ca
CTL
▁ef
▁ra
▁csr
▁Form
▁foreign
▁Workspace
▁getSkyWalking
▁NORMAL
▁annotated
▁assertFailure
var
HTML
icip
Blocked
Cleanup
planation
▁testEquals
▁VV
lining
Handles
tobuf
▁LENGTH
▁addHeader
▁JSONScanner
2000
▁nullSafe
▁getSignature
▁CacheException
blk
▁aha
▁own
Dictionary
StateBackend
XmlApplication
▁WeakReference
▁Unm
Coder
▁fake
UNNING
Article
▁interop
AlterTable
▁dimension
ees
MOTE
▁Jetty
PopupMenu
Flux
Hour
iated
▁Last
▁Movie
▁taskManager
aif
Logic
▁CharsetUtil
Bp
ke
Dot
TIN
▁sig
Known
ORAGE
▁isUn
Special
▁Weight
▁ENGLISH
▁Operand
Verification
▁CategoryPath
DAY
▁il
Poll
boot
▁ImageView
FieldScript
▁metaAccess
DDL
▁GENER
▁CallTarget
▁getSequence
Tick
▁snap
▁BUFFER
▁anyMatch
Configured
▁readBytes
77
95
MR
Pod
Jars
▁Maps
▁EventBus
▁getNumber
StatsResponse
ITOR
▁qid
CODING
Customer
▁getComp
▁FilterChain
▁ParserConfig
nail
▁getOp
umbnail
▁Article
Arithmetic
Transitive
04
▁Fl
AGIC
emble
▁FileUtil
▁TypeToken
Repositories
▁deserialized
▁ScriptTemplate
dra
▁ll
YCLES
answer
DirectBuffer
ibly
ORITY
changed
▁agentStat
ActiveTrace
▁Credentials
▁QueryBuilder
Div
bin
LOSE
Prepare
▁Fields
▁tensor
▁Attachment
Most
▁setPort
▁XmlElement
▁activeSpan
▁resourceName
▁gx
▁wq
Shot
▁rowKey
ClientException
dec
eee
argin
lapser
▁setTest
▁NeuralNet
▁AddressSpace
jectedExecution
dac
▁TO
Leak
Maps
TURN
drop
▁cli
CLUDE
Quiet
▁Upms
▁Subtask
▁getIcon
▁loadImage
EmulatorTest
▁sendMessage
dy
▁addI
▁emac
nemonic
invokeHR
▁joining
▁Particle
▁BeforeAll
▁writeLock
▁DynamicCustom
cur
▁Ordering
FileStatus
▁TestClass
▁attachment
▁streamInput
▁Ins
LEVEL
▁fold
▁pageSize
LicenseState
▁TokenStream
▁ResourceProfile
Transient
▁webSocket
▁Parcelable
▁lineNumber
TYPES
▁ieee
▁getLo
▁Reduce
RootNode
▁isStatic
SO
▁NANO
▁Odps
▁Rich
▁thrown
▁compress
▁dateTime
▁rowCount
Additional
▁ObjectUtil
▁ServiceInstance
▁pcc
▁Phone
operator
▁Gradient
▁setService
▁DynamicCustomOp
ToBe
going
mages
layout
Absolute
▁upgrade
▁doFilter
▁setTarget
▁setSelected
neg
▁jav
▁nOut
SCRIPT
MemorySize
▁Optimized
InfoProvider
▁mq
ored
pkts
Sizes
▁gold
▁cssdev
▁symbols
orizontal
Enumerator
▁Reentrant
▁Ip
arter
hydra
vaser
▁Wait
▁getEx
▁isFile
▁kvaser
Detection
▁Profiler
PacketPayload
▁LayoutInflater
pad
Texture
command
▁RocksDB
Templates
▁getEvent
▁remainder
▁sessionFactory
00_
▁sym
▁getHttp
▁getKind
▁getRule
▁interse
▁isValidate
SourceBuilder
▁RMQ
pector
▁Flush
▁CYCLES
FileWriter
▁CacheKey
▁hasLength
▁accessToken
▁currentTime
▁addIArgument
▁SingleObserver
presso
Elapsed
INTERNAL
▁Scaling
▁Singleton
▁Coordinator
book
plied
crease
▁getBy
▁support
NullValue
▁Password
▁jna
clusion
▁keyType
▁listFiles
DefaultValue
bf
PQRS
hape
LOCAL
GATIVE
▁SOURCE
▁addValue
▁datafeed
▁coordinator
Adj
Den
xtal
▁CHE
▁Loc
Vectors
▁History
▁summary
▁blocking
▁toolchain
TransportAction
POS
Echo
Grace
ertical
ifeCycle
▁MySqlWall
▁Recording
▁fromIndex
▁requestId
vide
Ascii
▁getI
▁kobj
▁added
ipEntry
▁testCreate
StatsRequest
RequestPBImpl
▁getClassName
Avg
ermin
▁CENTER
▁Parsable
▁Polyglot
▁buffered
▁installed
▁qc
▁firm
▁LABEL
▁firmware
▁handlers
▁getSecond
26
▁multiple
▁ali
▁dmang
▁ordered
SHORT
▁Sink
▁Lambda
▁counts
Searcher
▁MimeType
cRB
iry
Linear
▁White
Mismatch
Unsupported
▁Unresolved
▁jsonBuilder
SearchRequest
Te
▁Cpu
▁Jmx
▁received
ctionDomain
▁getPh
▁Volume
CheckBox
Assembler
Interrupt
▁operations
▁chart
▁bounds
▁hostap
Entities
▁Economic
▁doesNotHave
phys
should
▁Pooled
▁sender
▁outputFile
▁ShardRouting
▁transformation
WT
▁Fork
▁adap
▁setP
CommandLine
▁DoubleValue
Representation
WARD
▁hard
Allocated
▁percentile
JO
fr
bind
Aligned
mployees
▁PROPERTY
MET
▁cev
▁Extra
ingNode
DocCount
▁recycle
▁Exchange
OptionalString
We
_88
oco
▁Place
SpanEvent
▁ObjectiveC
▁TypedValue
FID
▁TP
Keep
edis
▁CANCE
Updates
▁Parent
▁naming
▁Section
ClientConfig
▁SingleSource
IE
▁bs
Clazz
DataPoint
▁placeholder
▁ServiceProvider
EXECUT
▁Clang
▁issue
SACTION
icipant
▁assertIs
▁deadline
12_
Dem
▁Transfer
▁patterns
alt
igrate
▁repeat
WebClient
OPER
aving
PECTED
▁Csv
▁setM
Submit
▁Caching
processor
▁getLayer
▁cacheManager
TokenIdentifier
▁ax
oose
000000
sCount
▁decor
▁pxafb
LIMITER
agination
andidates
▁testName
▁readFully
▁MultiDataSet
dd
▁mg
▁TASK
▁inet
▁price
SCHEDULE
▁compiler
▁segments
▁getInternal
ading
alcon
▁prog
▁answer
▁JavaFile
Deprecation
▁addEquality
▁subscribeActual
arse
Examples
▁transferTo
▁WebTestClient
▁BAD
▁Spel
Formats
Modifier
▁console
▁ordering
▁BaseRestHandler
works
BitSet
TestHelper
TX
fwd
ools
Inlined
▁WebApp
Normalized
▁showError
▁testClass
▁Reflective
▁sy
▁Lib
▁hdev
ToArray
▁Records
▁bigArrays
Rel
ope
▁rv
▁Vec
Views
Backup
TAINER
▁CHECK
Notifier
Unchanged
riteBatch
StatusCode
_42
STRU
UMMY
utationGraph
▁IndexSettings
ndi
Kill
Outbound
ObjectType
▁userRepository
▁sa
Sheet
rottle
▁Keyed
Shuffle
private
▁Crypto
▁started
▁readOnly
▁getLabels
NodeManager
▁wrappedBuffer
px
udo
None
▁ppsc
▁corre
Selective
RuleConfig
FilterChain
▁Distribution
▁setHelpLocation
GB
Busy
chnl
▁isMatch
▁JobGraph
▁readLock
EpochMilli
▁instrument
▁randomLong
▁eventHandler
▁Show
▁magic
DEFINED
RowCount
▁diagnost
PROPERTIES
▁StringValue
▁TupleDomain
▁getOrCreate
Note
open
▁Names
NotFound
▁FUNCTION
ITS
mented
▁toUri
▁HttpHeader
WORK
▁repo
▁NODE
▁radius
▁NoOpName
▁maxValue
▁reserved
▁Blackhole
ShouldReturn
▁requests
▁putString
▁notNullValue
▁PART
▁invok
▁mouse
TraceId
LongField
▁getShard
▁getDomain
▁heartbeat
▁JDBCSession
▁greaterThan
RegistryService
▁ArgumentCaptor
PH
_44
▁Asset
duction
▁eventBus
▁ObjectName
▁NANOSECONDS
ceed
orize
▁doOn
▁Lower
▁flash
scribers
▁htRates
Qps
tsf
▁sti
ToInt
▁play
subdev
▁nacos
▁updater
JoinValue
▁Qualifier
▁SortedMap
fish
rase
▁GFile
▁CodeAttribute
▁instanceReader
▁ExecutionVertex
▁Rex
▁cosm
▁flip
▁Arguments
▁stackTrace
▁parseUnsigned
AIN
▁ofdm
CURITY
▁Binder
▁atomic
BindingData
▁getCatalog
▁webEnvironment
adr
Varchar
▁Loggers
▁INTERNAL
▁getProtocol
Hosts
Counted
Explicit
▁WARNING
▁goldfish
▁TableName
▁FloatValue
cm
urator
▁getScheme
▁sourceType
▁getExpected
▁SecureString
▁SignalService
▁getContentType
Hot
itx
▁Deque
Rx
msk
▁detect
▁decimal
Descriptors
▁DynamicObject
ali
Alert
dmitx
seudo
Analyz
▁lifecycle
▁TypeElement
035
Grpc
SIGN
▁Actor
▁dictionary
▁RedisRunner
ycl
▁NM
rcmf
undled
▁brcmf
Already
▁Period
framework
▁PlanNodeId
▁nextElement
▁ntb
SIBLE
▁instr
▁WebMvc
▁xContentType
▁pe
▁blue
▁getEn
cluster
▁transp
▁getPrimary
HandlerAdapter
▁SocketChannel
▁512
▁Style
▁getTo
▁Processing
▁getJSONObject
Gu
▁wc
ICON
LUSTER
▁AbstractG
INTERCEPTOR
TypeSignature
▁CacheManager
TC
15_
▁ERD
▁typed
RESHOLD
Organization
▁createQuery
▁GraphBuilder
▁springframework
02_
FRAME
▁baseUrl
▁chandef
▁queryParam
▁ins
▁pkts
Hasher
▁THREAD
▁extended
▁ClassMatch
▁unsafe
Placement
POLIC
pressed
▁follow
▁Erasure
▁getStackTrace
Digits
▁WINDO
AILABLE
▁enhance
ClusterNode
▁BlockingQueue
ResourceManager
▁UPDATE
BitFloat
▁getFeatures
▁Intermediate
adc
pcie
▁150
▁std
▁wlan
▁Device
template
▁DataNode
▁StateStore
mmed
pell
▁mtu
▁FLAG
▁home
▁lmac
edData
▁Email
▁getQu
Mutable
▁byName
▁getModifiers
parm
▁ams
▁ioe
▁Registration
CED
▁Pos
▁RPC
▁Beans
▁LLVMI
▁Cipher
▁queues
▁article
▁getArgument
AIT
inux
irth
▁Exp
▁mgmt
SUFFIX
▁SCpnt
▁fdadr
▁UserDetails
▁compilation
▁assertContains
IntegrationTests
▁commandExecutor
FB
hp
▁36
▁kv
▁tgu
Hints
▁hide
StepKey
▁secure
▁RuleClass
ResponseBody
44
pg
uses
▁txd
ither
▁1001
▁oracle
▁ResourceID
▁PostMapping
ooted
COMMIT
▁WRITE
▁getWork
▁getPriority
▁numDataNodes
▁createInstance
Snap
peri
▁carl
▁Fluent
▁addInput
▁verifyTrace
▁SUB
▁factor
▁layers
PROVIDER
ingWindow
▁WallUtils
▁setVersion
▁ServerBootstrap
▁Cron
OnWrite
▁Bullet
▁vhtRates
▁getVariable
▁addParameter
dclk
While
▁mmio
▁rxon
IsNull
▁iterable
▁JobStatus
▁getPattern
ERS
Wire
▁Motion
▁getSlice
▁Decompiler
▁TruffleObject
▁hp
Conn
Rank
SAFE
▁Jms
▁Unit
▁CLUSTER
▁newFile
▁Settable
PageSource
dle
ATER
SERT
SPEC
lier
▁Inline
abb
als
▁Bus
Quietly
component
DoubleData
Weak
▁Nfs
▁SAX
▁Safe
warded
▁Joiner
▁Lottie
▁orderBy
available
▁numRecords
▁PI
eloc
▁esp
toset
SECOND
▁reload
Canceled
jBackend
▁setAuto
▁services
▁getLayout
39
▁Iter
Returned
JobAction
MediaType
Unchecked
▁RestClient
▁executeSql
▁SingleInput
Dns
Via
dtm
IDTH
inesis
Multipart
▁getColumnName
▁unmodifiableSet
▁ff
Power
▁inPlace
▁getUpdate
LD
▁DAT
Sharing
▁duplex
▁Tracing
▁decoded
▁getMult
▁watermark
▁HttpEntity
▁PrestoThrift
▁propertySource
blocks
packed
SocketFactory
▁BL
Price
TRANS
▁sset
header
return
uarded
▁HEADER
▁extend
▁glcoex
▁Visitor
RowObject
▁doesNotHaveBean
DEN
▁Keys
luencer
▁Foreign
Populator
▁Computer
▁getEntry
▁anyString
▁jsonObject
Xid
▁dem
▁vals
COMMENT
▁Wrapped
Fails
ander
▁getURL
Bindings
▁numbers
Deprecated
▁Privileged
▁Materialized
MetricSnapshot
NG
rec
dmic
▁JOB
▁tab
▁Case
URLException
ailedExitCode
CIM
Issue
▁loss
▁Tracer
METADATA
▁epsilon
▁RootNode
MeasureSpec
▁LLVMNative
▁ClusterBlock
▁MaybeObserver
▁29
▁vec
▁jgen
▁putOpt
▁getItems
Expiration
Subpartition
RequestCondition
Cert
HITE
antiles
▁Tomcat
▁getSuper
ThrowException
▁TestSubscriber
▁lk
▁Login
▁lkdtm
▁sband
emption
▁Deoptim
▁isOverride
EAR
REA
Hdfs
▁idle
eeprom
▁activate
▁sizeInBytes
CES
arb
8113
HASH
▁Readable
▁sessionId
Where
▁until
▁STREAM
expected
Sensitive
▁getAvailable
▁Logic
▁PcodeOp
▁editable
▁setParameter
▁RequestContext
Urls
▁None
Letter
served
▁doGet
Pointcut
Possible
▁requires
TableIndex
▁LLVMSource
▁MockResponse
ExecutionGraph
batis
▁crop
coales
TIMESTAMP
left
ABASE
▁setDriver
GroupConfig
Utilization
▁NDArrayIndex
HighLevelClient
▁JsonProcessing
Red
ivery
▁Skip
▁cyber
FAILURE
Retained
sistency
▁plugins
▁Autoscaling
▁BenchmarkMode
cture
rfkill
▁sheet
itecture
▁MINUTES
CS
pcl
ainless
▁allocator
▁ActionResponse
▁calculateOutput
▁hid
▁Inst
▁Perf
▁OUTPUT
▁buflen
▁history
PARTITION
▁ViewHolder
▁setPosition
58
ROM
velope
▁mount
▁vt
CONST
IABLE
Expand
FACTORY
▁Principal
▁immutable
▁masterNode
▁ProgramClass
▁getStartTime
TotalThreadCount
Mer
fsl
▁getAge
▁getPlugin
▁GhidraScript
▁Dao
Grant
atisf
oices
▁pbuf
uchbase
▁getTag
FloatData
ponential
▁HashCode
▁Parallel
▁MemBuffer
▁translator
▁milliseconds
Aggs
▁dup
icator
▁Graphics
▁MathUtils
pw
busy
▁bss
▁100000
▁newName
TimeoutMillis
▁Deserialization
tn
▁PUB
COLLE
Preview
▁COLUMN
▁isOpen
RequestException
pmx
▁lat
▁JvmGc
▁setNum
▁futures
▁mapEntry
Compressed
▁setHeader
▁createTime
▁setTransaction
Seen
Signal
tables
▁JarFile
▁analyze
▁DebugHost
▁isNotEqualTo
▁3.
▁nicvf
▁Leader
▁tracer
umulative
▁addAndGet
▁setPopupMenu
▁mmc
CIMAL
trans
lanner
▁HOSTED
thenReturn
CRY
▁isTrace
▁sampled
Instrument
Persistent
▁getSnapshot
last
▁Sync
▁note
MError
▁PGSQL
▁TIMEOUT
▁expectStatus
▁ThreadFactory
42
▁sr
Angle
riped
under
appers
▁Append
▁subList
PED
▁fil
paper
Joiner
▁JLabel
▁resize
▁routes
LogSegment
▁KafkaFuture
▁LayoutParams
▁VTMarkupItem
ConfiguredTarget
ICAL
KEYS
▁theme
Advisor
▁doDiff
▁Missing
Characters
▁customize
▁getByName
▁MaybeSource
▁attributeName
66
▁mps
Tracer
system
▁opaque
VertexId
ordinate
▁iocpage
▁Download
ThreadDump
▁TestSuite
ShutdownHook
▁getRegister
▁NodeLocation
▁executeUpdate
▁getOutputType
▁cd
fifo
▁LOW
Unary
▁isArray
▁populate
▁Functions
▁normalized
▁Port
▁zcdn
▁DISPO
orecast
▁LocalTime
▁WebEnvironment
▁Dot
▁Conf
Keeper
WaitFor
▁SQLite
▁addView
▁endTime
▁testAdd
ResponsePBImpl
07
Ttl
▁tv
▁CONTEXT
▁Circular
▁startOffset
lue
Acls
aches
▁scif
▁multiply
▁ThreadSafe
▁wd
Repo
TRIES
ITCase
arshall
▁isSelected
Milliseconds
▁UnsignedWord
▁AR
▁bh
▁FIN
report
▁GTree
▁mongo
▁Opcodes
▁coordinates
OperatorFactory
▁getDestination
vs
ars
▁si
▁cid
period
▁PointF
Invokable
▁Decision
▁dataSpec
MediaSource
▁setUsername
▁localAddress
ka
QUI
usec
▁two
▁Creator
▁startup
AuditEvent
▁AgentStatPoint
▁TimelineEntity
▁applicationName
Ioc
▁pk
▁sol
▁pIoc
antity
▁Training
▁SslContext
lcd
lipse
olated
▁Legacy
▁VMError
▁ofMillis
▁Highlight
▁estimated
▁getMetrics
Synchronization
rts
▁JVM
▁bci
▁keyed
Grouping
LessThan
▁PROVIDER
▁Substitute
ViewResolver
Author
▁STAND
Emitter
version
▁isInfo
▁rtlphy
▁members
Recursive
▁EvalException
▁Elf
▁pst
▁Tpch
Suites
Wrapped
▁Apollo
▁shards
▁TraceSegment
▁ServerRequest
▁expectedValue
phem
▁gcc
▁abort
▁strip
InOrder
AndFlush
phemeral
▁aliases
▁getMock
Versioned
▁Matchers
▁RecordReader
▁Final
Decider
Policies
▁Do
▁cu
izing
ucene
▁Pinot
▁grant
HotSpot
THRESHOLD
▁Tokenizer
▁internalCluster
29
nn
txd
▁gb
ATTR
rome
▁ratr
▁executeWith
XContentTestCase
812_
PAGE
VIEW
root
▁Sol
dwmac
FlowRule
▁getRole
▁METADATA
▁TypeMirror
ClusterState
PluginDefine
▁getForEntity
▁keySerializer
VED
SPAN
Pairs
▁jobID
▁FAILED
▁setUse
function
▁dataset
▁functionName
Since
▁OPER
window
▁pinpoint
DataCollector
devid
▁iscsi
▁Headers
▁ValueType
TraceObject
▁getReturnType
ACY
▁dy
Apps
sizes
Expire
▁Schedul
▁setTool
Frequency
▁ImageIcon
Prec
▁exc
0000000
▁POSITIVE
Fix
▁takes
▁BuiltIn
▁Physical
▁setError
IdGenerator
08
Atomic
▁Payment
▁getBind
▁getDist
rimitives
Conditions
▁getSelect
interruptibly
▁AV
▁bg
▁OFF
align
▁Assume
MessageListener
rantedAuthority
Gap
MSG
▁rev
elnet
▁hdfs
▁mayBe
HostException
▁SubClusterId
▁expectUnchanged
cceed
▁sqrt
coming
▁Trust
FERENCE
▁tmpval
Prefixed
▁addOption
body
wake
▁CANCEL
▁injector
▁getOperation
▁jdbcTemplate
▁DriverManager
▁Kryo
▁setR
▁vram
AttributeType
sage
▁Influx
periment
▁aggregator
Lite
Pressed
context
▁Kerberos
▁FrameSlot
ModelScript
▁MethodNode
▁returnValue
▁incr
Uploader
▁KeyStroke
▁getSubject
▁BeansException
adv
▁Cors
Election
▁Requires
▁tensorflow
Partitioning
Bvh
intf
PARENT
▁converted
TestInstance
WebSocketFrame
▁validatorHelper
IX
mcs
Photo
▁shut
▁OptionalInt
▁createDefault
▁dx
▁me
isions
▁Bazel
▁Usage
▁exporter
▁ClassConstants
▁DataInputStream
src
▁EXEC
Queues
Replacement
▁ArrayDeque
CER
odo
IMUM
PING
▁dto
label
▁Attr
▁driv
Indent
_000_000
▁SqlFunction
▁Cc
▁nq
delay
▁Over
missed
Physical
▁Distance
▁instances
ServiceLoader
InstanceMethods
▁getInstruction
▁hasMoreElements
▁IF
LOBAL
▁flat
▁ledctl
Computer
SortedSet
▁LiveData
Definitions
DiscoveryRule
RegistrationBean
Mix
txq
▁AB
▁FG
acade
▁RIGHT
bounded
▁getWeb
Wildcard
▁succeeded
TableSegment
▁getIdentifier
▁isOverrideArgs
Signed
ansion
ventory
▁Warning
▁NEGATIVE
▁Navigable
Orientation
▁addProperty
vec
▁isH
▁accum
▁intel
▁Sleigh
▁Indexed
▁reshape
▁IMethods
▁Runfiles
▁mediaType
▁getResolved
▁NoSuchAlgorithm
Bag
▁setT
▁Gauge
CLUSTER
packets
▁Verify
▁average
▁layerConfig
ValidationError
KIP
METR
Pager
FAgent
WithPath
▁setConnection
JVM
▁ND
▁wac
ariance
pwrdiff
ootedPath
▁exitCode
▁DateFormat
▁checkValid
ISTRY
uggestion
ChartGroup
rxd
tcp
▁AU
▁crw
▁syn
plash
xffffffff
FAgentStat
GroupSource
▁Measurement
ServerAddress
▁55
▁dd
Coin
▁soft
Notify
Widget
arbage
▁Total
▁vendor
▁latency
Terminated
▁Regression
▁interfaces
▁assertNotSame
Slow
▁Sign
▁must
▁Posix
Swapper
▁RUNNING
TargetObject
▁createEmpty
▁isAvailable
▁OutputTimeUnit
USE
iverse
▁seconds
DBAdapterV
▁IndexName
AccessControl
grp
▁Mac
▁wol
TaskId
▁netty
▁REMOTE
MimeType
Invalidate
Iterations
Interop
▁Restart
▁Support
▁jdbcUrl
▁traceId
▁getStack
▁getEncoding
bits
Comments
▁Routing
ationType
▁testWith
WebRequest
DatabaseType
ScalarFunction
send
serve
aptured
▁castTo
▁setQuery
▁ComponentScan
PK
rpl
▁Two
CATEG
▁spans
▁moveTo
Semantics
ActionFuture
▁TL
▁lva
▁Decl
anning
OrThrow
▁Failed
▁extras
▁mailbox
▁privileges
▁Preferences
▁orElseThrow
Att
Cloud
▁tEnv
▁AGENT
▁fatal
▁getDelegate
AccessProvider
▁nf
arer
rantee
▁Swing
▁phone
▁managed
▁Validate
▁resolution
▁MeterRegistry
CAP
▁getPer
obileCoin
▁SymbolImpl
▁catalogName
▁postProcess
▁verifyEquals
▁BE
dest
▁Avro
▁pull
Metastore
▁Migration
▁originator
HO
_43
▁pcs
Modules
▁bytesTo
▁Capacity
▁relation
▁RootContext
▁SQLDatabase
chk
urv
▁feed
▁prob
▁pinmux
▁Animator
UpperBound
▁SearchHit
▁getWriter
▁hibernate
Decompressor
▁indexMetadata
FileTransformer
su
Was
▁ci
▁Mach
▁signed
▁setConf
▁findById
▁grouping
InProgress
▁Restricted
▁databaseName
▁HandlerMethod
▁PLoggerFactory
▁completedFuture
cg
empt
▁CPU
▁0.00
ooKeeper
▁setCount
Customizers
Hub
▁xa
Dupl
pace
sfgc
Lexer
▁Espresso
▁comparing
▁SourceSection
JOB
▁HIGH
▁ptp
▁rhs
resco
▁backup
▁getSample
▁setObject
Declaration
ValueHandler
vobj
▁Encoding
▁getFileName
▁QualifiedName
XA
qp
680
Mean
▁und
▁Beta
▁bufvalue
▁Attributes
▁recipientId
▁DomainFolder
LIT
▁vg
ROOT
▁arm
▁grad
Retries
lop
sop
JDBC
Mill
MILLIS
Browser
▁markup
▁distribution
▁44
▁NIC
▁optim
OnError
▁addField
▁MimeTypes
▁ObjectNode
▁setDataSource
▁SearchResponse
BiMap
▁alarm
▁getTags
▁forClass
▁tableSource
▁containsOnly
OptimizationInfo
dn
Tpl
Tail
Broad
▁Sasl
▁aggre
SESSION
▁tenant
TEMPLATE
▁setFirst
Unm
arp
vfs
▁Var
ittle
▁DWAR
arshal
STORAGE
Allocate
Profiler
▁benchmark
▁blockSize
MemoryUsage
▁observable
▁deserializer
fn
▁XDR
▁cost
▁setAge
▁timeTo
EffectTag
▁itemView
▁fieldNames
▁WallProvider
▁positionCount
liver
▁grid
ForNode
▁finder
▁shadow
▁jnaData
Terminate
▁Reporter
▁entities
▁training
▁saveState
Uninterruptibly
▁startTimestamp
des
▁MS
ERIC
uest
▁rew
▁udf
ridged
▁getScope
▁closeable
▁testParse
▁contentLength
▁ESIntegTestCase
46
CALL
▁aff
Large
▁Abfs
Invoked
▁states
▁addrMap
▁getHits
▁Contributed
▁DefaultList
hi
nic
▁180
▁0.01
▁STAR
▁Rabbit
▁Guarded
▁SecretKey
▁aggregations
▁BinaryRowData
▁documentation
▁SessionFactory
Uid
▁3.0
▁Fcg
▁apk
Enter
▁GeoPoint
▁emulated
▁throttle
▁getOrigin
MARY
▁FULL
▁DISPOSED
▁preferred
▁webClient
pxi
▁sim
scale
SoftBody
▁byteValue
▁MemorySize
▁ByteProvider
IndexStatement
▁GeneratedValue
IsNot
Markers
▁modify
▁minValue
▁UnsignedLong
DataSourceRule
Binlog
▁Barcode
MultiBody
Compressor
▁Releasable
wqe
▁mic
▁PGSchema
▁Windowed
Participant
▁RpcException
Lat
ovy
roovy
ACCESS
Traver
▁keras
Bundled
▁rtlhal
iagnostics
▁preference
Substitution
▁OptionEffectTag
Coll
MARK
Three
▁Some
▁HttpGet
▁deleted
▁startPos
ServiceProvider
Acc
▁4096
AnyOrder
Consumed
▁ApiKeys
AVAILABLE
▁getAsync
▁testBean
QueryBlock
TestHarness
▁containsAll
AXB
sys
ENABLE
bidden
▁exact
▁addTest
Cancelled
▁modified
▁StringData
AndTimestamp
Interpolator
▁MiniCluster
▁lc
DRIVER
olatile
sequence
▁getMain
▁cacheKey
▁getSuccess
▁CopyOnWrite
▁getConsumer
TRA
onym
▁OPEN
▁Editor
▁getBig
▁groupBy
▁preProcessor
BuilderFactory
TimeoutException
tick
▁img
TBase
Activated
Precision
ExprParser
▁endOffset
Csv
IFT
▁mx
Front
▁HOUR
▁Cloud
▁setJson
quivalent
compressed
BackendHandler
BackgroundColor
arly
▁half
uspend
▁Compare
TestClass
▁TestBase
▁ArrayUtil
▁CEntryPoint
▁DBWorkbench
▁EntityManager
▁createTempDir
▁getCheckpoint
▁vp
▁grow
▁pata
Crypto
falcon
▁distro
unication
Conditional
▁JsonParser
▁EventListener
▁ScheduledFuture
▁XContentFactory
NAMES
eldung
▁inline
Downloader
▁writeVInt
Feed
AppId
aries
▁modparam
▁streamId
BigInteger
▁broadcast
▁MeasureSpec
edStateBackend
▁addMethodProxy
▁PORT
Symlink
NAMENODE
Trailing
DisplayName
▁TestEntity
▁TableColumn
RF
non
dict
color
▁SHORT
COMMAND
▁google
▁kernel
▁Archive
▁Explain
▁buffers
HttpServer
▁getHostName
SystemProperty
▁45
AUTO
▁ASM
anted
andbox
inator
▁infer
easured
▁Backend
▁Dashboard
ContextLoader
▁PowerMockRunner
ni
tip
▁dca
create
payload
strength
RequestId
▁cancelled
▁setBorder
CellRenderer
Exceptionally
ExecutionState
yQualifiedName
9170_
motion
Explain
Memcache
▁accepts
▁wasNull
▁AgentInfo
▁getConnect
LEX
Catch
SeqNo
WIDTH
▁60000
▁Klass
CONTROL
▁Handle
Acceptor
▁removed
▁DbgModel
ChangedEvent
▁acknowledge
ListGenerator
▁EventHandler
▁EventLoopGroup
▁CRC
EndOf
▁ping
Jackson
▁Strict
KeyGroup
▁present
▁Selector
▁Monitoring
▁getOutputStream
▁Und
▁Fold
▁material
ProtocolPB
▁addColumn
Cardinality
▁BytesArray
BinaryReader
▁transformed
uda
usp
bcon
ubSub
▁Slow
endsOn
Responses
▁failures
▁Framework
TableStatement
▁dig
ALLOW
EXIST
▁jvmGc
▁setJob
PINPOINT
umptions
▁capabilities
▁isEnabledFor
▁ExportLibrary
SCA
Sig
Lease
unused
▁Commit
▁unsigned
Initialize
Distributor
HashFunction
▁DFSTestUtil
▁cardinality
▁isInfoEnabled
Ts
bd
azon
force
Student
▁Retrofit
▁declared
▁getEmail
▁rowObject
RAM
gpps
Clone
▁spawn
ARGUMENT
Upstream
▁retries
WithMessage
▁Scheduling
▁getInteger
ErrorException
SequenceNumber
▁ipc
▁sdev
▁getMsg
reserved
▁visible
▁eventType
WC
▁35
Ping
▁emp
▁pnp
ardown
▁python
▁inverse
Parcelable
InternalName
▁shutdownNow
▁RequestOptions
ENS
▁BC
devs
▁enc
▁propag
▁basePath
▁readVInt
▁setLength
StatManager
▁MotionEvent
CastException
▁lineSeparator
adp
itr
Digit
▁hold
inuation
▁Bounded
atingSystem
▁exceptions
▁getAgentId
▁newHashSet
▁ResourceType
▁TaskExecutor
▁RecordIterator
ALG
asy
▁ED
▁ii
Lists
TOPIC
▁renew
Complex
formance
▁setVisible
buff
uted
▁More
▁JComponent
▁DruidPooled
▁initialValue
▁RestToXContent
▁Hex
iring
SYSTEM
NodeGen
▁Hasher
▁addNode
ShapeData
▁readFields
▁MemoryBlock
NamedWriteable
fm
35_
sch
▁Serdes
▁WebServer
InfoRequest
PA
▁SO
Flink
Share
Walker
Continue
▁getCached
▁DatabaseType
WO
UNIT
▁cri
Mongo
Offer
Dataset
Playback
▁Combine
▁Current
▁recover
MasterKey
▁tempFile
▁truncate
Searchable
▁getUnique
▁FrameState
▁disconnect
▁getClasses
AddressSpace
▁Destination
▁FE
icky
quis
▁inv
JTest
▁mini
▁hdata
iversal
▁STATUS
Criteria
▁another
▁aggreJoin
▁LocalResource
64_
Try
dss
Dims
▁UTC
▁ConfigDef
APPLICATION
▁getHandler
▁parseSingle
▁toImmutableList
Loops
enari
▁Guard
▁Spark
▁Consume
▁Sticker
▁printer
▁OpBehavior
▁writeAndFlush
▁tensorflowName
▁Concat
▁Stored
▁getDebug
Implementor
omm
FEATURE
▁testNo
TimeValue
bservation
▁Authority
▁dataStream
▁QueryResult
Ste
Cores
▁isRe
▁toler
CHANNEL
▁SpanBo
▁KvState
▁barrier
▁isError
functions
ColumnType
▁LLVMManaged
▁TrainedModel
▁setComponent
OW
▁kp
▁Enrich
▁screen
Os
▁Ui
▁rd
iter
Comma
oring
▁seen
▁white
ByQuery
Reducer
▁marker
▁FileType
▁Hazelcast
▁JavaVersion
TypeSerializer
▁annotationType
eps
▁YES
▁perf
▁maven
▁SCHEMA
▁getKeys
▁isDefault
▁configurer
Too
Hold
angler
▁Shutdown
▁ServerSocket
▁ui
▁0.2
igure
▁Ldap
▁FIRST
▁QUERY
▁replay
PASSWORD
▁Average
▁consumed
Decompiler
▁components
▁readNextShort
sOf
SHAR
▁MON
Dummy
IfNot
▁Scale
▁sense
▁setIn
Indexed
entroid
LiveData
▁checked
▁PmsProduct
▁closeQuietly
▁ChannelPromise
▁ProfilerConfig
▁securityContext
stor
Spill
local
▁getID
▁nulls
▁Rounding
▁getAndSet
PriorityQueue
▁containsEntry
▁MappedFieldType
GI
▁Box
shaker
▁Simpl
▁shell
priority
▁Replica
Collapser
StateCode
▁Savepoint
▁AgentEvent
▁httpRequest
▁writeDouble
▁AndroidJUnit
▁FsPermission
▁setTimestamp
▁TF
Recv
usion
▁Decode
IntArray
▁copyFrom
▁getModule
BundledWith
ertificates
▁StreamsConfig
▁getFileStatus
▁expectedOutput
Tcp
▁ofd
iform
▁cert
▁prod
ENSION
Hadoop
▁recordApi
▁ProcessBuilder
ShardingStrategy
Choice
ulatory
▁mirror
Pinpoint
▁tempDir
Gracefully
▁PathUtils
ittleEndian
DIAN
SVFA
Dubbo
ifold
Radius
ContentType
▁JsonGenerator
item
scsi
Links
ubble
otonic
ificant
▁getThis
ClassPath
▁FileWriter
▁initialCapacity
build
Latest
▁Depset
▁VTIndices
▁doExecute
WEB
leaf
pdev
▁Sel
Sleep
yclic
▁DBST
▁GRPC
enario
▁docker
▁closeEntry
aa
▁SM
Press
▁cons
Denied
buflen
▁toURL
▁customizer
▁testContext
▁asyncContext
▁prepareRequest
FailureException
LAN
uzzy
▁divide
▁Counters
▁RuleContext
▁iv
DELAY
mbase
▁ctxt
▁cmode
Erasure
▁ofdmbase
▁TestContext
GL
▁df
from
Locked
imingStats
▁Algorithm
ital
Clicked
Minutes
▁Complex
▁endArray
▁MBeanServer
▁PointerBase
▁BytesWritable
73
GRA
▁Wr
▁geo
funcs
orial
▁DIRE
▁ingest
▁skipped
InstanceId
Predicates
▁CFunction
▁RecordLog
▁DatabaseInfo
GHT
ube
▁um
▁Tar
ximate
▁Vocab
▁hosts
bodyJNI
▁getReg
JsonPlan
▁Grouped
▁IDENTITY
▁Direction
▁SoftbodyJNI
CircuitBreaker
▁JDBCResultSet
ByteBufAllocator
▁wide
▁Encoder
▁setBody
▁containsColumn
▁es
LECT
short
▁city
▁drain
▁getPdb
▁testIs
LogLevel
Throttle
▁orderId
Installed
▁testString
▁caseInsensitive
▁ri
FIID
▁ram
▁REFIID
Declared
▁tracker
▁voltage
▁ApiVersion
▁ThriftField
▁bcn
Behind
▁callee
BoMapper
InfoResponse
▁readerIndex
▁mayBeInlined
▁parseBoolean
▁RefreshPolicy
69
Sim
Must
ropy
▁LANG
▁getLIR
RESPONSE
▁Counting
▁btConvex
MediaTypes
▁createLocal
ExcludeFilter
StateSerializer
SES
Mono
enic
▁dgl
▁Mail
Looper
▁dglort
▁FlatMap
▁InsnNode
▁getLevel
InstanceOf
▁BlockNode
▁resourceId
▁HealthCheck
▁BytecodeNode
▁httpResponse
▁BarcodeFormat
▁RestApiVersion
▁resourceManager
SF
▁ast
USTOM
duced
▁JAXB
Vendor
limits
▁setIs
▁setHost
▁variant
▁keyValue
Correlator
▁Requested
Mid
▁City
Extend
voltage
▁INSERT
▁SINGLE
▁lenient
SessionId
▁animation
RoleMapping
VarcharType
▁ServiceInfo
rs
LAST
ORIG
uman
▁prx
ology
herited
Injected
Invocations
▁argumentTypes
Tck
VOK
OVER
▁uid
▁Scan
elocity
▁alignment
▁Functional
CL
Bool
Clip
Viol
▁Month
Country
▁Scopes
▁scaled
▁observe
▁disabled
▁inflater
▁setOrder
▁JSONToken
▁isConstant
MEDI
POOL
▁gtt
Timed
ingBox
▁Launch
channels
▁jobGraph
Discoverer
▁DataEntry
▁ConnectorId
▁48
▁WMI
▁lhs
▁grpc
▁logs
▁wire
▁year
Usages
Within
▁asset
▁endOf
OrEqual
TaskState
▁sentinel
▁methodHandle
▁ChannelOption
▁moduleManager
CreateTableTest
cu
MPLE
▁Ttl
▁amp
▁qpp
Propag
▁Reverse
▁DBSTyped
▁spanEvent
TimeService
▁ByteString
▁setAddress
▁DBSTypedObject
sup
thas
▁fit
Brand
iller
POLICY
▁sched
Delimited
arshalling
▁Formatter
▁LocalFile
▁CLICommand
StatsEstimate
▁ConfigOptions
▁NodeAttribute
Bl
tcu
▁LINE
▁hdrl
domain
Rolling
Traffic
quibase
▁resume
▁ingenic
TimeNanos
▁addResource
ConverterFactory
▁Ev
ETCH
▁toP
GMENT
▁Ansi
ITERAL
▁asInt
ections
ruption
▁JButton
▁already
▁truffle
BlockSize
BytesRead
Contained
▁DataSpec
▁nodeName
▁CodeBlock
▁Animatable
▁getPayload
▁testInstance
▁QueryBuilders
▁Easy
▁datum
▁SECOND
▁Discard
Endpoints
▁shouldGet
Coordinates
▁threadName
▁generateRandom
can
msix
▁101
▁dex
Presto
Testing
erequis
FeatureSet
erequisite
▁FileReader
▁Transformer
▁TransactionId
▁getOptionValue
▁serviceProvider
_64
▁gm
CODEC
▁UNSAFE
pressure
▁Original
▁getBuild
▁Documented
▁servletRequest
EP
▁VK
CmdCnt
TmpDir
▁ampdu
Minimum
▁hasher
Libraries
TypeTable
▁terminate
▁isNotBlank
ingDirectory
Authenticator
.5
▁alt
ORIGIN
▁testFile
▁TER
herit
▁bank
▁parm
BINARY
Concat
ArrayTo
▁Answer
▁pstats
Filtered
▁testInvalid
▁JdbcTemplate
amel
▁Jav
▁Undo
▁Uuid
▁SEVER
UndoLog
▁differ
▁Parquet
JobConfig
▁getMatch
AndVersion
▁responseBody
HomeSubCluster
▁OneInputStream
IDs
anit
▁WEB
▁nIn
▁crtc
FlatMap
MockMvc
▁listen
▁MESSAGE
▁runSwing
StackFrame
▁Timestamped
▁STO
▁PARAM
▁topics
▁polarity
▁setIndex
InAnyOrder
▁discovery
▁StorageType
Trim
kgpo
▁iox
Slash
▁axnet
▁lkgpo
▁quota
requent
▁writeEnd
▁getMember
▁StampFactory
▁TypeSignature
▁resourceLoader
ColumnConstraint
▁attempts
▁ClassName
▁getEditor
▁getUserName
▁getConstruct
▁LIN
▁frc
ograph
sation
▁month
▁SQLCase
▁EXTERNAL
ResultPartition
REL
Decim
dummy
watch
inance
urrence
RoundTrip
▁getSplit
▁publisher
▁CONNECTION
DEF
965_
Upcast
points
▁TOPIC
Commons
Maximum
▁verbose
NEW
bas
▁lowest
▁pixmap
interval
DebugInfo
▁expiration
▁getAdapter
▁HostAddress
InsertStatement
WE
JobGraph
▁NEWLINE
▁SESSION
▁getGraph
▁PluginTest
PluginConfig
▁findElement
▁getCategory
▁newChildren
▁shardRouting
▁setLayoutData
▁isr
CHEME
ArrayLen
BaseNode
▁FEATURE
▁Partial
▁special
AccessFile
▁GuardedBy
▁SymbolTable
▁StructConverter
▁AsyncResult
▁URLClassLoader
▁decrementAndGet
scr
▁crt
▁coex
center
▁Limited
▁WINDOWS
▁fraction
▁chnlgroup
Autoscaling
▁Fingerprint
PathParameter
▁expectedResult
umes
wise
▁nio
▁wqe
Appro
▁CALL
▁Keep
▁Move
Reports
▁chipid
Accepted
Navigation
▁newSingle
▁serviceId
▁setException
aves
▁lef
Negot
▁STOP
▁getOn
▁tests
▁discard
Canonical
QueryResult
▁traceSegment
▁handleRequest
LETED
▁Camera
▁Switch
▁checkNot
SWIGUpcast
▁Automatic
initialized
▁getTypeName
tectionDomain
APPER
IFIER
amples
tstamp
▁Handshake
▁Asynchronous
▁getConstructors
ndis
▁Jdk
Intern
Logout
ipFile
▁animator
▁andReturn
▁IndexShard
▁TestTarget
▁getGeneric
▁getMetaAccess
▁ObjectProvider
ASCI
Resume
▁ACCEPT
JavaMethod
▁Animation
▁activeTrace
▁getIntValue
SecretManager
▁isTraceEnabled
Ance
Fence
▁VOut
▁filp
▁coded
▁XxlJob
Learning
essaging
outwrite
Optimized
▁JdbcType
Assumption
▁agentInfo
outwriteval
▁setTimeout
ResultMatchers
▁recordException
NET
OUS
wrf
▁34
▁Tab
▁ahci
▁iterate
▁Generate
▁readFile
▁timeline
▁positions
▁getFailure
▁Instrumentation
Sdk
bssid
▁Pojo
Checks
▁ACCESS
▁Prepare
▁Temporal
Accumulators
▁getExternal
GeneratorTool
▁FR
ISTER
▁gmch
▁jobs
queues
ELEMENT
▁TARGET
Decoding
▁fetcher
Resolvers
▁Changelog
▁keepAlive
Rtc
▁gd
olar
▁Exo
Borrow
Facade
esture
▁stored
▁watcher
▁stopSpan
ConfigFile
iesContext
▁newFolder
ingStrategy
▁MAC
▁pmu
ASCII
gable
▁Hint
SOCKET
fragment
Violation
▁Splitter
▁InvalidKeras
LAT
▁Syn
Mills
▁timeUs
Stubbing
▁getPolicy
ServiceRule
▁WallConfig
▁callTarget
▁writeShort
▁createEntity
iationException
LEASE
▁angle
Stopped
▁Warmup
▁bindTo
Subclass
BatchSize
▁secondary
▁floatValue
urst
▁cdc
cmdsn
KeySet
ointed
▁getTop
Counting
▁DBCSession
▁configured
▁getProgress
NormalizedKey
▁AbstractBlock
▁evaluateBinary
▁profilerConfig
VA
UAGE
▁xdp
▁rxwi
OnMock
▁MULTI
▁calib
appable
▁hdmitx
TestNode
▁IDialog
▁Mybatis
▁RSocket
btAligned
▁Weighted
PluginEvent
▁Department
▁JsonReader
▁HostAndPort
CurrentThread
DataSourceList
LOC
▁DAYS
Reload
▁Filtered
▁ActiveTrace
▁KeyGroupRange
▁PostConstruct
▁56
RING
▁sram
▁Union
settings
▁drvinfo
▁EXPECTED
▁XPackUsage
▁FileChannel
▁SQLDataType
▁addDocument
▁setProgress
TypeDescriptor
ExecutionResult
false
▁less
events
▁excluded
▁rawValue
Go
LOGIC
▁elem
OPTIONS
Servers
▁Fresco
Threaded
▁FAILURE
▁nextBytes
OnSubscribe
RuleClasses
TrainedModel
▁tableColumn
▁DatabaseFactory
947
veal
2800_
WINDO
▁JobId
▁getTasks
TracingSpan
▁Schedulers
▁Navigatable
▁RelDataType
Elasticsearch
Specifications
Es
▁Io
dinal
▁WHITE
▁joint
pointed
▁getCpu
▁cleanUp
LifeCycle
UtilsTest
▁JavaType
▁Redirect
▁tableEnv
Difference
UserDetails
EncodingStrategy
ISH
MEN
DIFI
▁Cpp
ByKey
Small
Speed
▁dwReg
▁fbdev
▁Either
▁NUMBER
STATEMENT
▁EasyMock
▁TextUtils
▁AuditEvent
▁getManager
▁getPadding
siso
▁der
▁est
Scaling
▁Course
▁webApp
▁isAlive
▁polling
▁appendTo
ObjectArrayT
▁DefaultHttp
▁enhanceClass
ADDR
urbo
Attrs
▁vars
▁COUNT
▁KTable
▁hasValue
Checkpoints
▁DemoService
▁checkCanceled
WireSerializing
Vo
▁DL
▁zk
▁gpu
▁visited
Convertor
▁keyStore
▁dataEntry
▁MDBaseNode
▁queryBuilder
▁VTAssociation
crb
▁pix
IDDEN
▁SHAR
▁axis
Square
▁modedb
▁SkyValue
ServiceName
▁configFile
▁WebEndpoint
▁responseTime
▁cor
Decor
▁DUMMY
▁vaddr
▁INITIAL
attribute
▁Validator
▁retention
▁testRemove
valuationContext
53
30_
GET
const
ively
▁Mean
▁math
QUENCE
▁getPdbId
▁maxLength
CommandType
▁createContext
HandlerException
ROP
umask
ENDIAN
rowing
▁12345
▁CField
▁changes
Promotion
▁Components
run
▁63
▁surv
GRESQL
Sparse
▁gauge
MAPPING
HeaderValue
▁StepVerifier
▁declaringClass
▁27
▁Jpa
▁vma
▁coales
Sentinel
▁setCategory
▁ConsumerRecord
Swap
▁API
▁den
angling
▁getPos
▁desired
▁getScale
▁newState
▁setRequired
▁ScalarFunction
igu
▁turbo
scanoff
▁Recovery
▁includes
▁jHipster
▁UmsMember
▁shortName
ChangedListener
▁replaceChildren
sig
Mail
▁pul
▁aggs
▁notEmpty
Broadphase
InfoVisitor
CompilerTest
▁JsonInclude
▁Initializing
▁getSupported
▁RemoteException
▁JDK
ONENT
ometh
Handled
▁IDebug
▁barcfg
omething
▁written
▁getStats
▁setStart
▁Toolchain
▁getDevice
▁concurrent
▁eventListener
TableForeignKey
WAY
las
Macro
slave
▁Card
▁FILL
SERIALI
▁Schedule
▁decorate
▁expanded
▁productId
▁reservation
▁getConstraint
POL
lines
▁EVAL
CURRENT
uspended
▁newCall
▁Semantic
TableLayout
▁effectTags
Transactional
▁stateMachine
QueryParameter
▁MySqlSelectTest
qcn
asca
idio
only
▁liqu
Circle
ascade
▁NUMERIC
▁Windows
▁decrypt
▁Specific
▁liquidio
ValueCount
▁currentToken
▁MockEnvironment
ofs
rough
▁CODE
▁setH
Stripe
lookup
▁Const
▁FileT
▁HBase
▁refer
ascript
assigned
ValueInfo
▁setAllow
▁stringValue
ObjectIterator
▁getExecutioner
Orc
egr
uer
annot
iffies
WithKey
Embedded
Internals
NAMESPACE
▁getParam
▁getSearch
PolicyAction
WatchResponse
VF
EMP
FFFF
▁sin
▁30000
PACKAGE
▁ranges
Executed
RowMapper
▁PrestoSpark
05
INTR
Yarn
cmds
Manual
▁anchor
uminance
▁Capture
PerSecond
▁possible
▁appendText
▁getInterface
Mic
▁Te
acer
wifi
TINUE
▁DBPE
▁dnet
PROFILE
▁rtlpci
▁Checked
▁Upgrade
▁getJobId
▁byteOffset
▁nextDouble
▁setComment
▁JobVertexID
▁StreamObserver
MBOL
hing
▁pag
ILITY
▁txwi
▁Country
▁getSingle
▁immediate
▁TableSchema
▁initialized
▁StarlarkBuiltin
▁rap
using
▁WORD
▁authorize
▁setContentView
AU
KE
CLI
eon
▁If
▁did
omaly
reduce
▁RMApp
▁pitch
▁highest
▁userInfo
▁databaseType
▁getPrincipal
▁ModuleManager
▁stringBuilder
▁SpringExtension
lang
▁JWT
lemetry
▁MEMORY
▁PUBLIC
▁getURI
▁mocked
JavaType
Applications
▁getMeasured
▁TaskAttemptID
▁getMaxAddress
▁setContentType
RA
14_
_3_
temp
tools
Dumper
Squared
▁octeon
DIRECTORY
iagnostic
▁implement
▁totalCount
▁columnNames
▁Deserializer
paredStatements
▁ColumnMetaData
DOC
pwm
▁ux
Avro
phab
▁rar
▁say
creen
▁OVER
Layers
Isolation
▁embedded
▁Bandwidth
▁JsonCodec
▁ProfileTask
▁WordFactory
▁MockWebServer
PreferenceStore
qs
Spi
frags
thetic
▁Frozen
▁rotate
▁setGroup
Unavailable
INS
▁nvm
▁qspi
▁sprom
EndTime
LineNumber
subchannel
▁webServer
▁antMatchers
▁SequenceFile
▁workspaceMgr
▁assertInvalid
CodeClassLoader
new
offs
▁Gadp
▁cols
▁infos
▁Advice
UserName
▁accepted
▁rootNode
▁createKey
▁TextSecure
▁getRegistry
▁LocalVariable
▁AS
ATAL
agger
▁calls
▁hsync
▁newNode
▁Relation
▁setEntity
▁getInitial
▁healthCheck
ingActionContext
▁testFrom
FloatValue
▁ArrayData
InputBuffer
▁threadDump
Placeholders
▁IndexRequest
MethodMetadata
mc
UAL
bip
ven
▁Cuda
▁wrqu
DLayer
▁Alert
bipolar
Compound
Delivery
Determin
sampling
▁testCase
▁createSQL
▁userService
▁PE
Reuse
▁mdio
MsgBody
Polling
▁jniGet
00000000
▁Animated
▁Injector
▁MessageLog
▁snapshotId
▁InputChannel
▁ExecutionGraph
ae
▁FM
eign
▁MAN
▁VIn
▁From
single
▁isNaN
▁rapide
▁getSpec
▁Fallback
▁GeoShape
▁Standalone
▁transitive
▁executionConfig
41
89
Sel
Gram
▁Oms
orded
▁rock
Recurs
▁OTHER
▁Toast
supported
▁geometry
▁Heartbeat
▁getBranch
▁getScript
SCredentials
▁parseDouble
▁libraryClass
▁setSkyWalking
SPI
osn
ILER
▁CSV
▁Spy
▁pml
ilable
ommend
▁ppage
▁ticks
Degrees
▁wizard
regvalue
▁Primary
▁addCell
▁Deadlock
CONNECTION
▁Governance
▁HystrixRequest
iny
▁AM
▁mgr
FLOAT
▁getPu
▁popup
▁Circle
▁CONTROL
▁findOne
▁SortOrder
▁addObject
▁extraArgs
▁groupName
DataSources
AttributeValue
Netty
▁yarn
Slider
ifiers
iguous
▁javax
inished
▁advert
▁typeInfo
▁privilege
▁getDuration
▁MemberVisitor
▁RegisterValue
eus
hsic
ToRaw
▁qcom
Consum
etheus
AtLeast
support
▁Google
▁Rename
▁Special
▁VISIBLE
▁bufpriv
Changelog
▁newArray
AddressSet
▁accessKey
▁RootedPath
▁btMultiBody
▁connections
▁serverworks
ENC
INC
eaky
ighb
▁Rank
▁pacpi
▁GridBag
ChangeLog
▁RESOURCE
▁deadlock
▁qualifier
▁deprecated
▁isFinished
ColumnVector
InstanceList
▁taskExecutor
MAC
SIS
udu
STIN
▁Fid
▁isV
ertow
weight
▁SCOPE
▁Compact
▁isFinal
▁classpath
▁setInitial
▁LLVMLanguage
ApplicationStat
▁ix
▁ksz
▁mux
9477_
loppy
▁DESC
UPDATE
thresh
▁setUri
▁toJava
InMemory
▁aligned
▁getBlob
PARAMETER
▁LogLevel
▁Manifest
▁OperatorID
▁getTimeout
▁HttpMessage
AdapterFactory
▁JoinLongField
▁ScriptContext
▁getHostAddress
DIO
bos
Week
▁onnx
bosity
Deadlock
Statuses
▁degrees
DELIMITER
Wallpaper
▁JsonArray
▁reconnect
▁EncodedImage
67
Elf
▁37
InMs
Lang
GRADE
▁ASYNC
▁shost
▁isWarn
decessor
▁setPath
Inspector
▁rotation
▁teardown
adioButton
▁EXCEPTION
▁NoExternal
▁startArray
▁ResourceBundle
EDI
ILE
mdk
▁Bug
▁Pwr
▁pcie
Applied
pinconf
▁onEvent
▁Allocate
▁setLevel
▁SQLEditor
▁isWindows
TestContext
▁fieldWithPath
REP
Look
▁Win
▁efx
ORITH
▁gxfb
BUCKET
▁Loaded
▁matched
ImageView
▁POSTGRESQL
StringBuilder
▁SecureRandom
85
DIG
SEC
ofdm
Flash
reply
Average
MISSION
▁Region
▁interceptors
▁RedisConnection
LAS
Spans
▁yres
▁isLog
▁choose
▁survey
▁Unicode
▁NetUtils
▁Searchable
IMP
orum
▁sha
ALIAS
alary
stack
▁1000000
▁addLink
▁Buildpack
▁mapreduce
▁runScript
▁btTriangle
SessionFactory
CC
car
MULT
PEND
prev
edium
▁Clone
▁floor
clusions
▁Polygon
▁setNode
BeginNode
MessageId
specified
▁JarEntry
Forwarding
Importance
▁PARAMETER
Normalization
NamingStrategy
▁SearchRequest
emi
▁btG
RETRY
▁retrofit
▁metricName
▁FileSourceSplit
▁RS
▁VM
note
▁Pass
FERRED
ToList
Overrid
▁sslCtx
▁testRead
000_
reeter
rolled
server
▁DWARF
Disable
▁getOnly
▁reactive
▁addFilter
▁Transitive
▁getCharset
▁positional
ResponseCode
▁CircuitBreaker
emap
TRACE
▁MEDI
content
▁deeple
▁lambda
PageSink
▁ErrorCode
TransactionId
▁deeplearning
▁getRecipient
▁BenchmarkData
Ded
ccb
NoMatch
▁stripe
▁GENERIC
▁addArgs
▁DataFlavor
Construction
▁expectMessage
▁Ms
iece
▁intr
racket
▁payment
▁DateUtil
▁AuthToken
▁BitMatrix
▁Streaming
Deserialize
▁SpriteBatch
▁ElementOrder
▁getSizeInBytes
WebSocketHandler
cy
vd
rcr
bist
▁bas
▁ance
shortgi
Uncaught
▁KStream
▁baseDir
▁explain
▁RMQNormal
▁savepoint
▁unresolved
MaybeObserver
▁isCompatible
ASTER
float
flush
Respon
offload
▁BLOGIC
ShouldBe
CacheSize
▁Invalidate
CodingPolicy
▁PathPattern
EventPublisher
WNER
▁RMap
▁getStr
Lowering
▁CmdTable
▁getRecords
SnapshotRequest
43
Car
Jdk
▁et
riov
▁mxs
asing
▁MAGIC
▁Serial
▁machine
Analyzers
Overrides
▁Children
▁Selected
▁Navigator
Percentiles
▁getUncached
▁isConnected
EO
cpu
mif
▁af
▁Pay
▁Sum
▁LIST
Bridge
option
▁dirty
▁logic
▁playback
▁BulletBase
BucketCollector
SIC
▁EXT
▁YARN
▁cookies
▁Visibility
mos
▁Old
▁ltq
▁Snake
balance
Subtasks
▁getPerm
▁mapType
▁produced
▁PageParams
▁FileContext
▁OnClickListener
▁createWebClient
ipt
▁ls
▁alter
activity
▁defStyle
ByteChannel
▁MetricsTag
▁domainFile
▁ByteSequence
MetadataProvider
OOP
json
▁bcm
▁REAL
erminate
▁CHANNEL
processed
▁getEstim
▁localAnchor
▁isWarnEnabled
▁ConnectorSplit
mur
urmur
▁argv
CONNECT
Clusters
LiveTest
▁endIndex
▁AppCompat
▁imageView
Replication
▁BitmapFont
▁Convolution
▁getStatusLine
PropertySources
Saf
ctxt
ooth
▁Jndi
BitsTo
▁plain
DURATION
▁appendNull
Materialized
CONFIGURATION
irtiesContext
iers
▁lir
Probe
WithNo
▁evict
Analyze
▁apiKey
▁insets
▁DBNNode
▁getPart
▁notifier
▁Clipboard
Persistence
▁SkyFunction
▁uncompressed
▁OperationMode
Sn
TI
iga
usc
Pojo
▁rdl
▁sdk
etime
▁Simp
▁VIEW
▁Apple
▁Looper
▁thrift
▁indexes
▁NameNode
AbsolutePath
▁certificate
▁setSelection
▁MutableLiveData
Vert
YNAM
ATEGY
▁pphy
▁srev
▁Mount
MaxSize
Subframe
assemble
▁pphyreg
▁sTmpDir
▁asString
ColumnNames
ManagerImpl
▁getProduct
▁EconomicMap
▁IConfiguration
mtp
▁AW
▁dac
▁nmdk
Backed
▁known
Released
▁Produce
▁hostName
▁SpanLayer
▁getNullable
▁NumberFormat
▁prepareIndex
▁parameterType
TableConstraint
▁openConnection
▁segmentStorage
uul
THAN
upon
▁BLK
Major
▁vmur
MinMax
▁zeros
Scripts
general
DataTest
▁queries
▁successful
HandlerMapping
dbg
▁GRE
ACKET
ToUse
▁xcRB
opcode
▁pivot
▁unread
InfoList
TestWith
▁appName
Returning
▁setQueue
▁NAMESPACE
▁BranchType
ResponseTests
▁DBDAttribute
▁HW
ALLE
PLAIN
▁Clean
▁spill
Splitter
▁getHead
▁locator
WorkspaceMgr
▁Am
miso
▁msi
▁ugi
▁Coff
▁VALID
Decoded
▁addEdge
▁getProps
KeyContext
PullParser
▁getReader
▁WorkerThread
▁GenerationType
▁getLogicalType
▁ON
▁dc
erse
▁655
▁sata
ByHash
Signer
▁Chron
▁EXTRA
▁GdxTest
▁toIntExact
ColumnFamily
▁DateHistogram
▁getServiceName
▁ServletResponse
▁bp
Peek
▁REC
▁2048
▁Kill
Deletion
MenuItem
Protocols
▁ClassUtil
▁readVLong
▁toInstant
▁threadContext
▁DirtiesContext
▁JavaFileObject
BT
CPU
anned
POINTS
Scorer
▁delim
Rotation
▁COMUtils
▁REGISTRY
▁Inference
▁tokenStream
▁threadFactory
_45
▁iq
▁asm
▁pur
SUMER
▁CONF
▁mesh
▁Cycle
DataNode
▁natural
▁TestSpec
▁migration
▁queueName
▁setBounds
Requirement
▁privateKey
▁TextureRegion
duc
▁IG
IENT
apnp
ople
walk
Steps
sFrom
stors
ootnote
▁Cyclic
▁isapnp
Namenode
▁PATTERN
▁replica
Encrypted
Navigator
▁FilePath
▁JSONBase
MessageType
▁extensions
▁displayName
▁BuildOptions
▁OptionalLong
▁VoidNamespace
▁getAttachment
▁EL
izza
▁TOT
BRARY
Trial
▁pvid
Always
Flight
ToFile
CEDENCE
Futures
▁RexNode
▁waiting
▁TaskInfo
▁TaskState
▁highlight
AggFunction
EnhanceInfo
▁createWith
▁Cancellable
▁LoggerContext
Tw
HER
NORE
ahci
▁Conv
▁FSRL
▁ceva
FAILED
Tinker
▁TRANS
▁onView
▁mapToObj
▁onnxName
▁setAlpha
▁containers
▁getWriteable
ParameterValue
▁RedisCommands
▁hasMessageThat
▁Rt
etable
▁Joint
LECTION
▁getter
▁density
▁getNetwork
▁NoExternalUse
▁parserContext
▁paramAsBoolean
Cp
umulo
Spaces
SUCCESS
▁speeds
Implicit
Playlist
▁addFirst
Classifier
SinkFunction
▁getConstant
▁getExpression
▁getSuperclass
▁ServiceManager
▁fre
Hover
lImpl
oltek
▁msix
▁MATCH
▁nanos
PROCESS
cluding
andatory
▁bResult
▁getRest
Consistency
Serializers
ShardingSphere
▁namespaceName
▁WrapIDebugHost
▁responseHeaders
apes
DEBUG
achio
xFFFF
▁BIND
▁pist
Enrich
RowType
▁Shuffle
▁getPriv
Fragments
OptionKey
▁ListNode
▁accessor
▁checkFor
▁getRules
Aggregated
▁EventType
▁IDManager
▁pistachio
▁symbolTable
▁getEstimated
▁ContextCarrier
ApplicationEvent
▁GraalDirectives
▁fos
▁orc
▁room
DELETE
▁Evalu
Concept
▁Gradle
Estimator
▁getFiles
▁setCache
ServerPort
▁procedure
▁setDaemon
▁Relocation
▁getDocument
▁orientation
MONTH
During
▁getIp
Choices
▁123456
▁Marker
▁colors
SNAPSHOT
▁INTERVAL
▁PASSWORD
determinate
▁ChannelBuffer
▁instrumentation
Md
▁&=
sions
▁Machine
SingleValue
▁JobContext
▁Validatable
ObjectWrapper
▁EOFException
▁DecimalFormat
▁getSchemaName
▁BytecodeViewer
▁DatagramPacket
▁selectionPaths
CIFI
FORE
Need
▁Hal
owire
vides
▁live
riting
overlay
▁Notify
▁WebRtc
▁advice
Duplicates
▁dateFormat
Modification
▁getProducer
SessionManager
FW
▁mvc
▁escap
▁Minimal
Modifiers
RecordSet
Sequences
▁Painless
▁SaveState
▁getCustom
TaskAttempt
▁createData
▁getMultiset
▁ServiceLoader
▁RedissonClient
cal
ROLE
UBBO
LUGIN
ynamo
▁Follow
Bookmark
clockevent
connection
fulGateway
▁isReadOnly
ServerConfig
RuntimeContext
crt
ROLL
ONTAL
▁LAST
▁ucrt
TimeUs
icated
reboot
▁amiga
▁pixel
▁bridged
▁Currency
▁creation
▁searcher
▁expectBody
▁findMethod
ObjectMapper
SearchResult
▁MetricGroup
▁asProcessor
▁dependencies
FileAttributes
▁getRegistered
▁StaplerRequest
▁DataSetIterator
AML
▁cg
loser
▁refs
ducing
CHARSET
TipText
PRIORITY
STRUCTOR
Handshaker
InnerClass
▁getVertex
▁openStream
▁currentName
CommitResponse
▁endTransaction
▁AssertException
Pk
rod
Repl
Consts
minder
peated
ramrod
▁shader
▁getChar
▁responses
▁restClient
ServiceInstance
▁SettableFuture
▁mex
major
▁QUEUE
InfoApi
▁ACTIVE
sResponse
▁toOracle
▁getNodeId
▁Configured
▁GraalError
▁concurrency
▁ConstantPool
▁BorderFactory
▁SQLIdentifier
ThrowsException
▁doesNotContain
▁toOracleString
▁MessageListener
ITT
aba
aid
▁Py
▁120
▁secretKey
DigestState
▁decompress
▁channelRead
▁getEndpoint
▁ReentrantLock
ENUM
oost
SCOPE
close
Ticket
▁getPr
▁rowId
lapping
▁Sneaky
OnBorrow
▁getPool
Requested
▁Archived
▁criteria
PositionUs
▁Analytics
▁modifiers
▁JTextField
▁partitioner
arbageCollector
65
Rt
BOX
IOD
Odps
ased
Phone
ResId
RECORD
▁Other
▁ready
message
▁SplitT
▁parcel
ByScroll
ParseType
QueueSize
▁getSpans
▁TypeUtils
▁testEmpty
ServiceState
ReaderFactory
▁ExecutionEvent
▁fileDescriptor
▁StringParseType
CONF
disk
orian
speed
Camera
atalen
▁pstmt
▁testC
regorian
▁offload
PRECEDENCE
▁allocated
▁writeFile
prop
▁Req
▁itr
▁nps
▁SKIP
CREATE
OUNTER
▁getIf
▁pretty
sContext
▁Delegate
▁getAlias
▁Couchbase
StringArray
thenSuccess
Interceptors
Presentation
▁EncryptRule
▁GeoLocation
ExceptionCode
▁PriorityQueue
Miss
▁Fire
YNAMIC
edLong
success
▁savebb
ThreadId
▁CpuLoad
ingBuffer
JobRequest
▁CANCELLED
▁getMetric
ConfigTests
▁getBuckets
DataSourceBo
OutputBuffer
▁contextPath
▁prepareSearch
432
FIRST
cuart
▁TOTAL
gnoring
resource
▁Builtin
▁bmcuart
▁deferred
▁getTopic
▁indirect
▁createIndex
▁classVisitor
▁MockConnection
derr
ADOOP
▁beta
▁clip
▁docId
adapter
▁setOut
DelayTask
LIRBuilder
ToLongBits
▁assertEmpty
ones
▁cue
LOSED
▁Pixmap
Compiled
▁REPLACE
▁Vehicle
Optimizer
▁PREFERRED
▁getWeight
▁NumberUtils
ConnectionSize
ResultCallback
▁BufferedWriter
▁DelegationToken
▁SV
▁Git
Acked
▁wake
▁getAc
▁Wrapper
▁getJdbc
▁TestUtil
Referenced
arningRate
▁writeVLong
MapNullValue
_80
sip
CENT
Nano
VERY
pear
▁Inv
▁PUT
Wrong
lyway
Removal
DataSize
Throwing
▁getCall
▁ActiveMQ
▁Pageable
▁RpcContext
▁AsciiString
▁Canonicalizer
▁XmlPullParser
▁sts
CLOSE
▁ATTR
ibling
module
oneKey
▁INode
▁ORDER
▁TERMIN
▁clkevt
▁stdout
▁jobConf
▁estimate
FieldNames
MainThread
NodeLabels
▁handshake
TokenRequest
▁JsonXContent
▁encodeToString
ptt
fers
▁GONE
▁PAGE
▁SAME
▁allOf
▁sizes
Varargs
▁asType
▁getRef
strumented
▁LongField
▁NodeScope
Checkpointing
▁getConnector
▁DataCollector
bm
Half
Orig
▁Csi
▁bpp
ersey
iding
okies
▁hung
Descri
Bounded
▁Raptor
gradeRule
▁Combined
BigDecimal
▁inputFile
▁ThreadDump
▁LogicalPlan
▁getActivity
▁IntegerStamp
▁LayoutHelper
▁ResponseStatus
Cli
Ddl
▁NLS
Limits
VARIABLE
▁getArgs
▁getSlot
AndVerify
▁Rollback
▁revision
▁getFields
▁AddressMap
▁TextFormat
▁SneakyThrows
UCT
aff
▁59
sAnd
▁AWS
feature
▁SAMPLE
Snippets
▁isShort
▁ListView
▁LongAdder
▁assertion
▁persisted
▁skipBytes
EncryptRule
▁TaskListener
▁mutateInstance
QUO
▁43
Mini
Eager
TTask
andby
▁10.0
▁Click
Grouped
▁Assign
▁Length
oneOffset
▁concrete
▁Candidate
▁topicName
▁department
▁getSupport
▁jsonString
▁outputPath
regorianCalendar
ette
▁Gif
▁ddl
▁Spdy
ORITHM
orrect
FORWARD
Ignored
▁unbind
▁Subscribe
DESCRIPTION
HyperLogLog
▁MemoryPool
▁WebService
ResultMessage
▁ConfigChange
▁TypeResolution
Fire
heel
▁127
▁Boot
mapping
▁BINARY
▁permit
STRATEGY
▁reducer
OrEqualTo
TimeoutMs
▁currency
▁ConfigFile
▁getControl
▁windowSize
▁AverageTime
▁Unmodifiable
LifecyclePolicy
StorageLocation
▁TypeDefinition
ValuesSourceType
Sur
yled
assign
▁BaseDL
Checkout
▁HttpHost
▁explicit
▁dataFormat
▁getDecoder
▁ActionEvent
MessageHandler
▁ExtensionLoader
HY
rcv
Shim
lied
▁csum
Prefixes
▁Analyze
▁docCount
Equivalence
RetryPolicy
▁DBECommand
▁newHashMap
▁deprecation
ala
mosi
▁KIn
Prote
▁Self
▁TEMP
ceeded
walking
▁Loader
▁disposed
▁evaluation
▁ofEpochMilli
MetadataManager
BUIL
SIVE
eron
▁ORI
▁ask
▁fis
▁TopN
▁lcsr
PerNode
Reading
FileInfo
IfNeeded
Inactive
▁Undertow
Structured
▁MaskedLong
▁RequestBuilder
ha
man
ield
IMAGE
empty
ilent
split
▁METR
Chunks
FOLDER
Mockito
▁intern
placement
▁JHipster
▁getCodec
CacheEntry
FromConfig
▁httpMethod
▁association
edr
▁ld
ACITY
ListOf
▁indir
▁pRecv
▁unsub
TypeFlow
CONTAINER
ScopeInfo
▁Payments
▁getWhere
▁maxBytes
▁multiset
▁Qualified
▁getUserId
▁propagate
StartException
_46
nor
▁Aop
▁Dir
SPLIT
inoco
nortel
▁JBlock
▁daemon
▁Extract
▁SmsHome
▁balance
▁blocked
▁orinoco
▁Simulate
Interrupted
▁Background
▁StringCodec
▁connectionInfo
But
real
Spawn
▁RETURN
▁Wizard
WithNext
▁TaskType
▁newIndex
▁replaces
▁getUnsigned
▁tableHandle
▁setContainer
MetaDataService
▁serviceInstance
long
tery
FILES
SEARCH
Dispose
▁getEnum
Continuation
▁NodeLIRBuilder
BRO
▁Rf
_1_1
mult
▁cch
▁tok
rescan
▁numOf
lemented
▁Journal
▁Accumulo
▁HiveParser
▁TestScheduler
▁createNewFile
▁IngestDocument
▁MySqlASTVisitor
▁handleException
kka
▁ALI
▁iop
▁bcma
StatBo
filing
▁COLOR
ENDPOINT
▁RefType
▁recursive
▁assertions
▁getRetained
▁getIntrinsic
SearchResponse
▁ExampleService
▁defaultCharset
▁AbstractRequest
▁SimpleVersioned
06
87
ceb
▁FO
▁TOK
▁checkRC
▁emitter
▁lstatus
▁planner
▁updates
SelfLoops
▁entityId
▁getExtra
▁getWrite
▁launcher
▁authorities
▁BuildEventId
▁isAnnotation
Deserialization
ORDS
aggr
▁csv
Categ
Hours
Bearer
ISTORY
▁getRM
ivative
Committed
FileTypes
▁Verifier
▁matchers
▁chunkSize
▁credential
▁expectNext
▁AbstractMap
▁InternalGeo
▁basePackages
▁processingEnv
▁topicPartition
gs
Spy
seg
dist
▁gain
▁logout
TestData
▁Discrete
▁Unexpected
▁SignalStore
▁getAbsolute
▁getStatement
▁ExceptionUtils
LACK
edian
ibaba
▁leave
AUTHORI
QUERIES
▁asLong
TextArea
▁alibaba
▁mcsbase
Successor
▁DBPImage
▁putExtra
DraweeView
▁formatted
Correlation
TypeApplier
▁resultType
ReadWriteLock
Bias
▁win
ising
ibatch
Regular
▁DOMAIN
▁OpenSsl
▁getInit
▁Bookmark
▁descending
▁jobManager
▁readDouble
▁assertError
▁ColumnMetadata
Pur
tms
Elim
ANALY
Align
imbus
Quotes
▁GLOBAL
▁Vblank
▁presto
Anonymous
Translate
UnderTest
▁functions
▁getEncoded
Requirements
▁ClusterName
▁MongoClient
▁operationName
▁ResourceLoader
▁StringTokenizer
▁isValidateMySql
▁tm
ITLE
Quant
▁KOut
omaton
▁RectF
whenGet
▁getSQL
▁DECIMAL
TableSink
▁SEPARATOR
▁enclosing
▁Preference
▁ByReference
▁getProcessor
▁MethodVisitor
819
▁Flag
QueryDAO
▁setView
▁suspend
▁evalExpr
▁ifExists
▁messageId
▁setConfig
▁Credential
▁conversion
▁writeStart
▁testDefault
Communication
ResultBuilder
▁LinearLayout
AccessStrategy
Drag
java
Dirty
OfDay
▁Mesh
▁Quote
▁Repeat
▁avatar
▁LIRKind
▁dialect
▁onStart
▁lessThan
▁setTable
ableObject
ArrayToBean
StateChange
▁SegmentStorage
Ui
mhz
▁vs
1000
▁600
▁CAM
▁like
▁qdss
Invite
wizard
ENSITIVE
▁flatten
▁VectorSTL
▁Aggregated
StreamReader
▁spliterator
▁refreshPolicy
▁throttleTimeMs
Ele
▁DBA
▁mav
▁Left
▁kryo
▁side
▁rates
▁remoting
▁authority
AssertContext
▁getFirstName
▁optionService
ker
▁ind
anent
OnExit
Rating
icture
▁getReal
Persisted
▁CONTINUE
▁sortOrder
▁putBoolean
LoggingEvent
TestExecution
▁parameterize
▁setBackground
Dbg
UCE
_0_
▁nos
Green
Money
burst
cause
multi
▁META
Around
iagram
ruptor
Closure
IfEmpty
Keyword
service
sistent
Periodic
▁Isolate
▁isFirst
COLLECTED
▁modelist
▁starting
▁ObjectPath
CommitRequest
EncodingSerde
▁getWorkspace
▁SqlIdentifier
▁clearProperty
592_
CHINE
otate
_5592_
reason
▁small
▁putShort
▁suppress
FromString
▁BuildInfo
AFileSystem
Significant
▁ModelLoader
SecureSettings
ingWindowManager
55_
▁da
JvmGc
▁Sent
▁demo
Gesture
SPECIFI
commands
▁AppInfo
▁readShort
▁styleable
▁ActionInput
▁inputSchema
▁pageBuilder
▁initialization
812
Apk
NER
STATS
uaran
▁Right
JarFile
Datagram
▁Spatial
▁company
Installer
SortedMap
TypeFilter
▁endpoints
▁Compressed
▁MapFunction
▁interrupted
TokenGenerator
▁takesArgument
▁ObjectAnimator
▁allowsSelfLoops
Phy
▁BA
▁alg
▁isM
▁Seata
▁Chrono
▁Report
Hostname
▁getHigh
▁Features
▁paramName
ResponseTimeBo
31
ARI
ada
ICRO
▁Adv
▁way
▁Groovy
▁KQueue
▁ofFloat
▁setNext
▁setScale
▁RestResponse
So
sBy
ACLs
ENCY
lite
▁Any
▁Jfr
▁ReqT
▁PROXY
▁mutex
▁getSeq
▁mImage
▁PROCESS
▁FastJson
ElapsedTime
▁httpServer
GraphBuilder
▁writeNumber
▁irTreeVisitor
Expl
▁nav
▁pod
▁que
Edits
▁Animal
NodeInfo
▁testAll
Marshaller
▁1_000_000
▁Statistics
irectedGraph
▁HandlerUtil
▁UNCOLLECTED
▁createInput
▁ChannelState
97
188
▁DDL
▁Flac
Applic
Healthy
TypeEnum
▁logFile
▁setCode
Filtering
Percentage
▁selectAll
▁setClient
▁WebRequest
▁createUser
▁showDialog
▁TextDocument
▁ParameterTool
seen
▁AST
▁Ast
▁xsk
Pcode
▁JVar
▁SIGN
▁EXACT
Unicode
realtek
▁getDat
▁testDir
▁getRoute
▁writeval
▁Composable
CompilerSpec
umanReadable
▁JsonElement
▁createConfig
ObjectConstant
▁serialization
▁toAbsolutePath
Fx
arr
Repeat
SPACES
second
versed
▁First
chanism
▁getNon
▁Terminal
ingService
▁getCounter
MergedResult
MacroAssembler
▁executionGraph
▁TestEnvironment
SLI
Poly
SERV
udge
Again
posal
▁Coll
▁LOCK
▁cred
▁qtype
Inlining
▁EnvUtil
AutoCommit
▁parseArray
▁fetchSource
▁getExecutor
▁GlobalStatus
Crit
▁Rtl
▁csa
ually
▁fully
▁Disable
IdConnect
Sequential
HttpHeaders
TRANSACTION
▁OptionType
TypeStrategy
▁getElements
▁directBuffer
mento
Caught
▁isUse
▁Slices
▁pvalue
Failover
Monitoring
SchemaName
▁isPrimitive
▁CliTypeTable
▁OptionDialog
▁visitProgram
ShapeDescriptor
EH
Sk
pal
▁OT
▁cv
OPEN
quir
ensit
▁kill
SpanId
▁getSum
KeyStore
▁Reactor
▁devinfo
▁nodeDef
erivative
▁errorMsg
▁invokers
▁produces
▁AzureBlob
▁getBounds
▁sqlParser
▁getDetails
▁isComplete
HandleFunction
▁keyGroupRange
Cn
Capt
JAVA
hrow
ALONE
JClass
Recent
ocused
▁SMALL
▁reloc
FileSize
SECURITY
▁indexed
AndAssert
Observers
▁doAnswer
JobManager
▁EnableWeb
▁getNested
▁diagnostics
▁leafFactory
▁instructions
HandlerFactory
SnapshotAction
otedIdentifier
▁PublishSubject
▁VariableElement
flt
Runs
Asset
SPORT
OGRESS
▁compose
▁getFont
▁getRout
oomFilter
▁execRoot
WizardPage
Expectation
▁encryption
▁relocation
▁setFilters
StateMachine
▁DESCRIPTION
▁expressions
▁currentValue
▁TaskAttemptId
▁getParallelism
▁getServiceType
▁HttpHeaderNames
PY
day
▁GIM
Glide
ulong
▁Kudu
▁rack
Tracked
▁Modify
Evaluate
▁IBinder
▁setRead
▁FileCopy
▁getShape
▁setBytes
▁Increment
SharedCache
YamlSwapper
▁operatorId
FieldAccessor
ResponseHeader
4_2
XEN
▁JO
Bang
WAYS
adix
prod
▁ASC
▁SHA
▁fcr
quirk
▁Dict
▁rceb
AsList
Docker
▁NETXEN
CallBack
▁getAuto
▁createArray
▁ensureCapacity
GH
RUN
acent
AsText
Combine
OrAfter
▁jobName
▁FileSplit
▁getDigest
▁Simplified
▁createMock
▁INTERCEPTOR
▁ResultPoint
▁Availability
▁StringJoiner
▁1.2
▁disp
PERIOD
entral
▁isSet
▁general
OnFailure
▁defaults
▁BeanUtils
▁MediaItem
Collections
▁accumulate
▁assertAcked
MultiValueMap
▁errorHandler
SymbolInternals
Txn
▁Br
▁Mix
Floor
UTION
▁jndi
Assist
LASSES
▁actor
▁addrs
▁seqNo
▁journal
▁getLimit
DebugString
▁InputEvent
▁MediaCodec
▁PutMapping
▁agentEvent
▁waitActive
ExchangeMode
rot
odet
▁Aff
▁Dem
▁sge
▁setApp
FullName
▁Compile
▁LANGUAGE
▁particle
AccessType
ConfigData
▁VocabWord
▁upperBound
▁RedisServer
▁RouteContext
▁readAllBytes
ValueException
▁updateByExample
Ray
▁>>=
▁doI
▁pfw
Train
▁bias
▁third
Interse
Runfiles
▁proceed
▁incident
Regression
▁isChecked
▁publicKey
▁setFilter
▁WeightInit
▁setCluster
▁writeSlice
▁RedisStrict
▁StreamUtils
▁AllocationID
▁expectedValues
▁ParserException
wj
lin
ned
▁70
▁Pe
IBLE
need
wjgl
▁EVENT
▁Maven
▁XAttr
Isolate
Succeed
▁maxNum
▁setEnd
Keyframe
ShouldNot
▁parseClass
▁BaseDataTest
▁getPreference
▁isGreaterThan
▁ChannelInbound
SystemProperties
▁PR
Some
ceva
reat
ables
stash
Merger
Loaders
▁FILTER
▁Scroll
▁DBTTask
▁Hashing
Deviation
▁SQLBinary
▁taskContext
StreamWrapper
▁declareObject
▁DatafeedConfig
▁referencedClass
REE
ioc
▁ln
otor
eaver
enese
▁ptsf
Toggle
▁Equate
▁asJava
▁mutable
Semaphore
▁BigQuery
▁makePipe
▁ConsumerConfig
▁RF
▁va
▁Cub
anding
▁DUBBO
▁Second
▁Shader
▁JDBCPre
▁Loading
▁tableId
▁TearDown
MapBuilder
▁waitUntil
▁EComponent
StaticMethod
▁ClassLayout
▁StringField
▁TestConstants
▁ExecutionState
▁getDefaultValue
▁setCategoryPath
ARE
rat
▁PY
CRET
▁ssd
Duplex
Scores
Polygon
ollover
▁newdev
Recycler
UtilTest
mtCreate
▁getHash
▁keepDims
Suppressed
▁getShared
▁Javascript
▁ListIterator
▁SAXException
▁authenticate
PKT
105_
bove
vers
Await
setup
▁Draw
▁ICON
▁ethh
▁hour
▁manuf
CAPACITY
MaxValue
NewArray
Sampling
▁getRange
▁taskName
▁addSource
▁byteCount
▁toBuilder
▁SqlNodeList
▁TraceMemory
▁copyOfRange
QueryResponse
▁JoinLongFieldBo
Refs
▁gbe
Occur
▁ROLE
Sampled
▁Regular
▁timings
▁fileSize
▁rejected
MountTable
▁EndpointPair
▁verification
▁webAppContext
TransformAction
▁requestFactory
▁MemoryWorkspace
▁resolveArgument
164
SHA
oth
About
Ports
▁upms
▁20000
▁ADMIN
▁Emoji
▁defer
▁focus
ComboBox
Frontend
TestBean
▁CONNECT
▁namenode
AssignItem
▁encrypted
▁Deployment
WithUpstream
▁getNameNode
▁getPrevious
▁threadLocal
▁getEnclosing
▁subtaskIndex
FeatureSetUsage
▁WriteClassName
▁setTestOnBorrow
EXP
Std
▁Tx
DUMP
LUSH
▁sut
Agents
EXECUTE
▁derived
▁setNull
▁Compound
Assignments
▁assertBusy
▁ContextUtil
▁ExasolTable
▁TargetClass
▁SQLAssignItem
▁ApplicationStat
▁shouldGetResult
57
vt
emu
▁AF
▁MOD
OGRAM
RIGHT
FACTOR
▁Bottom
notifier
▁InOrder
▁ulScale
▁unparse
Temporary
MQProducer
▁Comparison
▁moduleName
▁regulatory
▁sourceFile
WithNextNode
▁ToolOptions
▁parseAbsolute
▁NamingException
▁createDirectory
▁getAddressSpace
Fd
Pid
▁CV
▁USE
▁gap
celer
oting
▁0.25
socket
regions
BigArray
▁LITERAL
▁getLink
▁ARGINDEX
▁increase
▁sessions
Acknowledged
RequestTests
▁getAllMsgBody
▁RuntimeContext
▁removeListener
ForSerialization
RTL
▁97
PASS
▁DBG
STANT
▁getO
▁pExt
Serial
advert
▁Delta
▁minus
▁setTo
traffic
▁nextId
▁Checker
▁ingress
▁getOperand
HealthStatus
▁FloatFormat
▁createRequest
Pe
bnl
▁RT
▁We
▁rw
375_
▁REF
▁acm
EQUAL
ctime
dcbnl
▁ceil
▁dflt
LOADER
OUNDED
▁0.001
▁armada
▁formats
▁DATABASE
ipStrategy
▁createAnd
▁initMocks
▁learningRate
▁getFieldValue
DataModelScript
▁Tcp
egaph
ByType
select
▁Pizza
▁Sheet
▁gpiod
▁pSend
▁train
▁which
ForType
Secrets
slimbus
▁discon
▁shrink
▁Failing
▁Located
▁rowType
▁setPool
▁ExecNode
▁flowable
▁toDouble
▁topology
NodeAction
▁BigArrays
ContextImpl
▁conditions
▁ringBuffer
▁Cardinality
▁binarySearch
▁serializable
▁numPartitions
▁53
▁Gen
erate
rasht
▁LAYER
▁Swift
▁runOn
Parsers
SECTION
▁minute
▁widget
TestRule
ValueSet
areTerms
rashtype
Expansion
▁testData
Privileged
▁ViewModel
AccessToken
▁DefaultFull
▁UserRepository
▁registerService
Asc
▁ql
FLOW
IIDS
LISM
▁AND
Pause
▁vide
Callee
HOLDER
▁album
odetect
ALLELISM
ENCODING
WithType
Thumbnail
▁warnings
ObjectNode
▁SSLEngine
▁Separator
▁notifyAll
ableService
▁Navigation
▁extracting
ActiveShards
▁ColumnFamily
▁Deoptimization
▁GenericRowData
▁PersistentTasks
aci
free
hwfn
▁NFI
▁tun
Separ
▁beans
Helpers
Leading
▁Signed
▁Tinker
optimize
OuterJoin
▁AliasFor
▁Topology
▁retained
▁runfiles
▁ITestBean
▁getBroker
TokenStream
▁Exponential
▁descriptors
▁Authorization
▁AbstractGeneric
▁propertySources
▁erq
▁sht
▁birth
▁getHeap
▁NodeLabel
▁ClassReader
▁getEntryPoint
▁NS
▁so
acing
equal
▁xres
Thrott
options
▁toNanos
▁setClass
▁setLocal
▁Renderable
▁setJsonEntity
▁sourceBuilder
▁DockingActionIf
▁operatorContext
fff
▁rom
▁Smart
INVALID
achable
▁regval
▁opIndex
▁scripts
FixedRate
Disconnect
▁CoreModule
▁ObjectType
▁getMinimum
▁setMaximum
▁testMethod
▁FactoryBean
▁OpenIdConnect
▁PropertyEditor
▁getOnlyElement
▁getPointerIndex
Fw
Iss
Ren
▁MA
▁rem
iewar
Opened
▁PRODU
Divider
▁CUSTOM
IfExists
▁OrderBy
▁getFlow
▁pciewar
▁marshaller
▁onCompleted
StreamChannel
▁Instantiator
▁DatagramSocket
▁TruffleLanguage
UX
▁nw
Metas
inalg
usted
Images
METRIC
correct
▁Packet
▁invert
▁linalg
Importer
▁getTemp
▁forValue
▁hwtstamp
▁tokenize
ValueClass
▁Transient
▁getInsert
▁Discarding
▁Placeholder
▁UserService
cdrv
ITTLE
▁Para
▁have
▁boxed
ABILITY
Reverse
▁LITTLE
Editable
▁DBeaver
▁Hierarch
Experiment
▁AbstractString
TRL
uri
▁jo
▁DOT
▁dbf
eness
usage
result
▁negot
Verbose
mEnable
▁buftbl
▁javaType
▁described
▁getVolume
▁PhoneNumber
▁SimpleCache
▁getFilename
▁scriptService
tu
KIN
mvm
prog
▁dos
1000_
Fault
_2_2_
ufreq
▁getU
LEDCTL
dicted
▁Amazon
▁HADOOP
▁SockJs
▁enforce
▁mappable
ableString
▁Generator
▁assignment
▁DegradeRule
▁parseString
▁btBroadphase
▁KeyBindingData
▁getSymbolTable
47
dog
▁Go
berg
▁Ant
ionic
stone
ASSIGN
pwrmode
▁ulClip
▁Delayed
▁ENABLED
▁paramType
Elimination
DoesNotExist
▁ILoggingEvent
▁authorization
ExceptionSorter
▁BlockException
BCI
bly
1234
Cntr
LLVM
iphy
▁edp
descs
▁9999
▁Rtsp
▁pled
IoUnit
Listen
clkevt
ToBytes
▁regnum
▁Fixture
▁GroupId
▁MeterId
Rendering
parameter
▁Compress
▁Enhanced
IoUnitCntr
▁Completed
▁candidates
▁capability
▁isNullable
▁queryResult
▁routingTable
operatorDelete
▁sasIoUnitCntr
ppp
▁ft
Mang
acts
▁JMX
▁LRU
▁PLA
▁UIT
SERDE
SSING
▁Resize
ributors
whenUsing
▁Internet
▁packages
▁frequency
▁castNonNull
▁unsubscribe
▁performAction
▁setParameters
▁BT
Prog
▁250
cycle
orite
quare
ackbar
▁drive
blocked
▁COMMIT
▁SPRING
▁crypto
▁keyidx
Detected
MessageV
▁SNAPSHOT
▁setWrite
Corruption
CharPointer
ObjectCache
KeyException
LittleEndian
▁VisualGraph
ConstraintType
▁bufferFactory
▁containsValue
▁RestfulGateway
▁Jsp
Ahead
▁bmsr
LOGGER
RETURN
▁Front
Delayed
▁Encode
▁setter
EXECUTOR
Supports
▁Exporter
▁TimerTask
▁setLocation
▁getResultType
▁MockMvcBuilders
▁ordinalPosition
Cc
gpi
▁Ql
ABYTE
CRYPT
gpios
radio
▁prxb
▁spix
▁Jedis
▁Vsync
▁isRTL
▁BUCKET
▁wdregs
▁IEditor
▁setIcon
▁quantity
descriptor
▁deleteAll
▁getParams
MBeanServer
▁getIndices
▁preProcess
▁isInterface
FollowPattern
▁getDirectory
BufferException
DataSourceNames
CommandException
Mo
SENT
eine
▁Apk
▁ide
▁mss
4965_
RESOL
Equate
odings
ounded
ENTRIES
Subquery
Wrapping
inations
▁BigBang
▁getPost
▁newline
Specified
▁EntryType
▁PARTITION
▁getNormal
▁resolvers
▁Dictionary
▁lowerBound
▁OAuthBearer
▁RecordCategory
▁LocalProperties
Seg
UNK
▁vb
CAST
CTAB
Deep
▁hdl
ights
▁isOn
▁AType
▁CLOSE
▁CommT
▁getSet
▁txdctl
▁Subject
▁Success
Employees
▁Commands
▁RESPONSE
Preemption
▁Translated
▁Acknowledge
ClientHandler
▁tryPreferred
StatisticsData
▁currentAddress
DM
33_
TOM
Yet
_48
▁vgc
5530_
roken
Queued
▁integ
ARCHIVE
▁GTable
▁anyInt
Backward
Sessions
Verified
operation
providers
▁bytecode
▁included
▁getMillis
▁TRANSACTION
▁advertising
▁FieldLocation
▁RepositoryName
Fold
▁tso
▁modes
generic
▁EnumMap
▁getPack
Forbidden
▁ScoreMode
AddressSnap
TargetClass
UNSUPPORTED
▁StreamTask
▁createTask
▁Equivalence
▁FunctionTag
▁userDetails
▁JsonSerializer
qos
▁EE
▁qb
_64_
▁Neo
▁TCP
OTSTR
bfusc
▁Calc
▁Pure
▁pctrl
Compute
Measure
OTSTRAP
addrqos
▁AnEnum
▁orders
▁getExec
▁isEqual
BigEndian
▁ENCODING
▁privsize
Formatting
▁getLatest
▁overwrite
PublishInfo
▁AstVisitor
▁Pagination
Contribution
LocalProperties
▁getDataSources
AnalyzerProvider
Rem
FROM
▁Dog
▁REP
▁tgl
▁HASH
▁Noop
▁hook
▁ptar
Appear
normal
▁books
▁slide
Confirm
ilarity
egaphone
▁CREATED
▁dismiss
▁computed
▁blackhole
▁bucketCount
▁columnHandle
▁resourceType
RequestHandler
WindowFunction
HOME
ctmp
sbus
▁IMP
▁RGB
▁mvm
▁pred
▁vdev
▁Where
avorite
samples
Includes
coalesce
coverable
▁insertion
Convolution
▁scheduleAt
▁MySQLBinary
▁getVertices
▁termination
ResultHandler
▁allocationId
▁getLocalHost
▁mavenWrapper
ConnectTimeout
DatafeedAction
▁AuthorityRule
▁TableException
▁beanDefinition
ALF
STAR
▁REQ
▁fbi
BOUND
Hbase
RANGE
CHANGE
▁pValue
MemoryBo
▁UriStat
▁addClass
▁textArea
FileHandle
OrderByItem
▁toInstance
▁TimingStats
▁responseType
▁setAsmEnable
▁InputProperty
ResponseHandler
Objc
YCLE
▁mrr
▁ume
child
mcast
▁ncmd
▁runs
▁AUDIO
Regions
▁cpoint
▁margin
▁CHARSET
▁COMMENT
ContextId
▁positive
Candidates
▁dependent
▁getHandle
▁setServer
▁Appendable
▁Speculation
▁describedAs
▁setFirstName
▁WritableUtils
▁verifyComplete
wd
Fake
GREG
TERS
rfid
▁SPE
CanBe
STACK
Phrase
▁spdev
aeldung
istical
matched
▁parity
handlers
▁KeyType
▁Preview
▁getMenu
▁getPoint
▁newThread
ClusterInfo
▁JoinStatBo
▁Prometheus
▁testContains
▁defaultLocale
FreeStyleProject
▁PropertySources
rb
POP
▁UV
4000
hwif
▁Cue
▁afk
▁hws
▁nsp
▁nick
memory
▁INVOK
▁lefto
Problem
▁getJvm
▁swapTo
Dangling
▁vectors
▁Detector
▁MatchAll
▁compiled
▁PluginInfo
▁asRegister
SummaryString
TransactionBo
▁getRepository
▁RouterFunction
MM
Far
Fin
axb
PEAT
▁elf
SPLAY
▁Must
Levels
encing
igible
▁fault
▁having
Expander
atisfied
ArrayType
▁getTypes
MethodInfo
▁testWrite
▁dataBuffer
AsyncContext
▁SystemClock
▁measurement
▁Aggregations
▁PostgreSQLCom
FileDescriptorBo
▁GeneralSecurity
Nd
PU
vo
NON
MBER
▁456
rosst
▁Ping
▁ltdm
▁pbar
▁pick
SYMBOL
WINDOW
chored
▁BATCH
▁datao
▁onoff
▁STABLE
▁testTo
Exceeded
XmlUtils
amelCase
▁Initial
▁logical
▁watchId
ratetable
▁sampleData
▁successors
▁AExpression
ClientInstance
▁getInvocation
▁getCredentials
68
Tap
FACE
▁Jwt
Board
ISHED
▁Brut
▁wall
▁BiMap
▁TLRPC
AccessKey
▁Semaphore
▁ofPattern
DriverClass
▁timeToLive
Instructions
AndInvalidate
▁jsonGenerator
▁writeOptional
CompletionEvent
▁nullSafeEquals
▁So
LING
gate
▁Err
▁jdk
▁jum
LINED
alind
asters
▁devid
Compact
esource
ynamoDB
▁JCache
Overview
avigator
▁qualified
▁completable
▁flinkConfig
▁permissions
▁getErrorCode
▁CoreProviders
▁evaluateUnary
▁MessageHeaders
ARGE
SFGC
▁tagq
▁txrx
MODIFI
▁Album
▁xxlJob
InfoItem
▁getWord
▁pnetdev
AndReturn
Cassandra
iversalID
▁newChild
▁profiler
UpdateTask
Distributed
▁formatOdps
▁getSegment
▁traceBlock
SharingGroup
▁getCapacity
▁advanceExact
StreamOperator
▁getAnnotations
fp
enn
ANCH
Proc
sata
▁fsl
▁ndk
itted
▁getDb
omemory
▁Startup
▁getBook
▁toIndex
▁viewport
Watermarks
▁getRegion
RootElement
▁getProfile
StatusAction
▁videomemory
TypeReference
▁relativePath
ActionListener
UpdateSettings
▁SortedNumeric
EEP
▁DS
Freq
Hole
Msgs
itter
rolib
▁arity
▁dvobj
SEGMENT
Expanded
▁Planner
ActionBar
▁Throwing
▁absolute
▁endPoint
▁loadFrom
ScrollPane
▁assumeFalse
TrackingState
▁CCharPointer
▁deleteOnExit
▁getFieldName
StatusResponse
CheckpointStats
▁GdbModelTarget
▁DSL
Ranks
rings
▁Real
▁vfdi
icting
▁ofdev
SimpleA
▁Reload
▁paging
AndValue
DataList
EventBus
Revision
SCRIPTOR
modparam
petition
▁numeric
ConfigMap
DocsQuery
allocated
decessors
▁Launcher
▁Lowering
▁ClassRule
ArrayBuffer
▁diagnostic
▁ModelObject
▁createLabel
TypeArguments
SessionBuilder
▁ExtensionList
AVB
sge
▁FW
gatt
▁isB
▁weak
Expiry
static
▁Apply
▁MICRO
▁photo
Compose
▁AUTHOR
▁Screen
disabled
protocol
▁RegAddr
▁Restore
▁RowKind
▁vregion
AgentInfo
GroupInfo
▁givenTwo
▁initFrom
▁notready
▁multipart
▁outputDir
IdPartition
▁Normalizer
▁threadCount
▁targetMethod
▁DatanodeStorage
Dac
bon
riz
ARNING
▁DoNot
▁press
▁ulDac
▁toggle
GroupKey
▁addCall
Enablement
▁ByteValue
▁connected
▁thenApply
▁updatable
▁getWrapped
LastModified
▁nodeManager
▁paramAsTime
▁ModuleConfig
▁materialized
HeaderAccessor
▁NodeIntrinsic
dip
oda
btmp
gpio
sysfs
▁qmap
▁slots
Entropy
polation
▁stopped
IfMissing
ServiceId
Triggered
PointerIndex
▁defaultTime
▁getCollection
▁StreamsBuilder
▁addInterceptor
Ns
cmp
EDED
Tabs
OUTER
▁Pref
ARATOR
Alphab
▁ACTIV
▁jumbo
▁links
▁stype
LogFile
▁ioaddr
▁Scatter
Something
▁detector
▁getBatch
▁rockchip
GreaterThan
Implemented
MultiBucket
TrustManager
▁NativeImage
ApiKeyRequest
Authenticated
▁EventExecutor
ApplicationName
▁SQLParserUtils
InvocationResult
adj
Dbvt
Nums
▁iph
▁who
▁umex
Middle
thread
CpuUsage
JoinNode
▁QueryId
▁handles
▁reduced
▁doCreate
FilterTest
GlobalData
▁fieldValue
▁UnstableApi
▁contextObject
▁FastThreadLocal
▁valueSerializer
IB
char
▁Obj
Nacos
Reward
SCHEME
▁autos
▁claim
Variant
Eviction
PageSize
Prepared
finished
Enclosing
▁contexts
LoggerName
PropertyKey
▁generation
▁TFAgentStat
▁TestTemplate
▁instanceSize
▁startActivity
ARK
CEN
_05
aga
LANG
joint
▁PIPE
ponent
▁Policy
▁MetaData
▁allMatch
Composable
▁ApiMessage
Cancellation
DatabaseInfo
▁InputFormat
▁miniCluster
▁typeManager
▁ResourceUtils
▁SegmentHelper
KV
wp
tree
▁erp
RESET
flood
getbl
maybe
plode
MARKER
▁andDo
▁isKey
Advance
MEDIATE
Waiting
▁pgetbl
olations
AResource
▁ENDPOINT
▁JSONType
▁ipAddress
▁jsonArray
Assumptions
ValuesCount
WithDefault
▁visibility
olationLevel
▁getChecksum
▁writeInbound
▁createControl
StrategyFactory
▁SystemUtilities
Mut
8188
STUB
TxId
bitt
txrx
▁pPP
▁Func
▁misc
Pixels
▁Manual
▁fillup
NotExist
fficient
▁GeoTile
▁getLoad
▁modules
▁onClick
bittiming
▁permitAll
▁unmarshal
▁EndpointId
▁FreeMarker
▁subscribers
▁ProxyFactory
▁refreshToken
▁createFunction
▁ChannelPipeline
▁recordAttribute
WER
lps
▁vx
SING
▁soc
ACTER
scall
Extent
▁ICode
▁chans
Ancestor
Frequent
WithView
▁protobuf
▁DnsRecord
▁VARBINARY
HttpHandler
▁SSLContext
SubtaskState
▁CharMatcher
HandlerMethod
▁searchResponse
PHA
lim
sul
POST
Will
diag
zcdn
▁Sph
▁mmd
▁qcn
Built
▁pHal
▁pcif
AGMENT
button
eroute
▁OutOf
▁glide
▁pname
▁Reason
▁RowKey
▁Upload
▁advisor
ClusterId
▁Mustache
▁pHalData
▁topLevel
IfPossible
Conversions
▁listStatus
QueryService
▁SearchModule
▁TimeHistogram
▁getInstrument
▁contextCarrier
▁getBeanFactory
TokenizerFactory
▁addShutdownHook
Fun
rep
tdi
drvr
▁ppi
IDENT
_1_2_
▁Akka
▁alps
Foundry
Scatter
▁nsAddr
▁sizein
Rounding
▁addItem
▁carrier
▁SECURITY
▁Wrapping
AfterTrace
SideEffect
▁ULONGLONG
▁beanClass
▁classPath
CheckResult
▁compatible
▁primaryKey
RequiredInfo
▁AudioFormat
▁DefaultNode
▁assertOutput
▁defStyleAttr
▁ExtendedBlock
ArraySerializer
prd
PROP
USED
▁TIN
▁UNI
▁look
Hidden
NORMAL
TARGET
Auditor
BUILDER
▁0.0000
▁subdev
Activator
▁Isolated
▁bindings
▁wireless
ScreenShot
▁textField
▁MessageType
StreamMetadata
▁getLineNumber
82
PSC
ract
Strip
claim
Opaque
utions
▁ANALY
▁pulse
▁sumOf
▁Arthas
UserInfo
▁rootDir
▁setFile
▁lifespan
▁restored
InstanceAs
▁whenUsing
▁getServlet
▁setMinimum
▁isSupported
ConfigOptions
▁expectedSize
▁serverSocket
▁StarlarkThread
ColumnDefinition
159
_50
▁NR
clan
moke
nist
arrow
iffer
▁bdev
Margin
rypted
▁Arrow
▁OFFSET
▁nmclan
▁Appender
▁Dispatch
▁mismatch
▁getTaskId
▁SpanAssert
▁TarArchive
▁GsonBuilder
▁addAnnotation
▁serverRequest
ExistsException
▁throwException
ARGS
Lint
▁tar
▁coal
Avatar
▁Pager
▁longs
Workers
▁called
▁isLast
▁setLog
▁skyKey
▁toLong
▁whence
InsnNode
VMConfig
▁CREATOR
▁addRule
▁HtmlPage
▁getBeans
▁greeting
▁hostdata
▁timeleft
▁DateUtils
▁getMaster
▁preOutput
▁valueSerde
SetupContext
▁partitionId
▁WriteRequest
▁setEnvironment
▁IdentifierValue
▁getParentObject
NM
xp
ning
▁cpt
▁hub
Coord
Occup
▁JOIN
▁mqtt
▁raid
Acquire
agpstat
pection
▁Rolling
BaseClass
Encryptor
Suggestion
FileManager
▁KeyedState
▁decompiler
QN
cck
ora
KIND
POCH
olen
▁BRO
nonbt
▁GLES
▁argp
▁miss
Tunnel
andora
▁crypt
Skyline
Datanode
▁Elastic
▁isAsync
backlight
▁getStore
▁BlockInfo
▁registers
▁timeStamp
▁SQLFeature
▁resultList
▁IOStatistics
▁InternalNode
▁getSerialized
▁ScriptException
Nio
ana
ilt
▁Ack
addrs
inese
inted
▁Face
▁tuna
RootDir
▁hdrlen
▁toAddr
Discrete
Escaping
Sentence
▁Curator
ingClient
▁isEnable
▁parentId
▁clusterId
▁setActive
▁userAgent
▁addHandler
▁DecimalType
▁DriverStrategy
▁FlinkException
INK
afa
join
▁lnk
IPKIN
bable
Codecs
ROWSER
▁Coded
▁frags
EXTENSION
▁FakeRest
▁cyberpro
▁keystore
DataFormat
▁OffsetAnd
▁getFailed
Overlapping
▁CToolchain
▁Synchronized
▁currentIndex
SingleObserver
▁assertException
Tor
_51
imo
mimo
PROXY
remap
▁uvfb
Tensor
▁getSh
Hystrix
Toolbar
contain
uncated
▁EnvVars
▁STARTED
▁keySerde
▁protocols
▁DBNDatabase
▁ShareTinker
▁MptCallbacks
▁Repositories
ProtoOrBuilder
▁DubboBootstrap
ShutdownMetadata
▁selectByExample
Mp
SLO
▁jz
igid
Accum
FLAGS
atype
blink
▁pcch
Assured
▁circle
▁tomcat
Keyboard
▁NetUtil
▁PACKAGE
▁modinfo
ValuePair
▁Protobuf
▁autoscsi
▁putBytes
PrivateKey
▁arrayType
ElementType
edException
▁applicator
▁compressor
▁isReadable
▁statements
CommonCmdCnt
TableFactory
▁IStructured
▁declareLong
▁inputFormat
StatementImpl
▁getAuthority
▁memberVisitor
▁RegistryConfig
AddressSnapRange
Art
RDD
dit
pps
Coff
ITEM
Norm
▁Dev
▁IRQ
ulari
UTDOWN
▁tools
DRIVERS
▁Accept
▁IValue
▁Unique
Combined
boundary
▁confirm
▁cpuLoad
▁isReady
▁ruleset
coalescing
▁Exposable
▁employees
▁btSoftBody
▁headerName
ResourceName
▁HttpVersion
▁QueryRunner
▁dataSources
▁probability
▁SQLAlterTable
▁TableMetaData
▁setPointerIndex
MOD
Rob
_5_
dat
DONE
▁Feed
▁rspq
Replay
▁movie
Finally
▁getMod
▁getCell
▁toReturn
▁EventBody
PropertyMap
▁testSimple
CacheRequest
▁writerIndex
▁SpecXmlUtils
ContextFactory
▁MetricRegistry
THO
ctu
irp
2400
nway
xied
▁5.0
▁TWO
▁mov
▁sen
Micro
tcpip
▁coll
Safely
▁qlink
DBTrace
▁getOut
Assigned
Checking
Ignoring
▁promisc
▁setTask
WorkPanel
eregister
▁directed
▁sayHello
▁ParamType
▁timeoutMs
▁FlinkKafka
▁webRequest
▁advanceTime
▁givenString
▁setLastName
ynchronization
HDFS
xres
▁iwe
ALIGN
Rigid
Apache
▁PGTest
▁SIMPLE
▁owning
▁Company
▁Latency
Substring
▁COMPLETE
▁RegexAST
▁isPublic
▁viewName
Primitives
▁ClassPool
▁Providers
▁processors
channeltable
ActiveTraceBo
ContextHolder
▁FunctionCall
▁createSocket
▁fromElements
▁getExecutable
TransportConfig
▁SocketStateCode
rpt
Opts
▁pus
▁utc
Recon
▁eirp
ensated
txpower
▁getBit
▁maxAge
▁atLeast
▁getMode
▁testPut
EventTime
▁Filename
▁LockHold
▁products
▁CONTAINER
▁overrides
▁setBranch
▁HelloWorld
▁TimeSeries
▁elapsedTime
▁loadedClass
▁testToString
PersistService
▁BaseTransform
▁dataCollector
▁QueryException
▁contentBuilder
▁75
FSRL
Fuse
▁Mer
▁lan
▁drag
chains
orical
▁MODEL
▁TOKEN
erspect
▁Backup
▁keybuf
Fuseable
▁EXACTLY
▁patched
▁executed
▁getAppId
▁pageable
▁MySqlShow
▁framework
▁CharBuffer
▁fingerprint
▁getIdentity
▁interpreter
LaunchContext
▁repositories
▁BasicTypeInfo
▁isInitialized
4_0
535
Jmx
_47
aas
ves
user
▁OLD
▁Off
▁sat
2000_
ANODE
JobId
omial
TERMIN
▁imask
▁steps
THREADS
▁BitMask
▁Results
▁working
▁assertUn
▁starlark
▁Procedure
▁SUPPORTED
▁onOrAfter
▁thenThrow
▁getWorkDone
ScrollRequest
▁getResourceId
PipelineRequest
lt
▁cm
▁rl
Chat
Conv
▁nfc
▁cond
▁100.0
ssRates
▁ALWAYS
▁nbytes
▁measure
OPERATION
TermQuery
UniqueKey
▁Pointcut
Appearance
WithEquals
▁LogRecord
▁ServiceID
▁authToken
▁KerasLayer
eneseCommand
▁RequiresApi
▁getFormatted
▁ProgramBuilder
ContainerFactory
ProcessorContext
fill
istr
yres
▁Rew
▁vft
Cross
Slide
Caches
▁bcast
Circuit
▁consum
DataKind
▁dropped
▁putByte
SpanChunk
assembler
▁deviceId
▁classfile
▁ledaction
▁newCached
▁getEncoder
▁toUnsigned
▁FrameLayout
CommandPacket
▁CompilerSpec
▁RecordWriter
▁activationFn
▁testValidate
▁BrutException
oy
▁QL
WAIT
reed
virq
▁vsi
Wheel
farch
argest
▁setUn
Clients
Surface
▁interm
Envelope
Manifold
aborator
▁getJson
Traversal
masterdev
▁BaseTest
▁Subtitle
▁getBitmap
▁prototype
▁auditEvent
ItemSelected
▁subscribeOn
xa
INEL
ackd
▁Cat
▁nmk
▁uls
MAGIC
ourse
▁pPhy
cboard
ocable
wifiex
erIndex
▁SELECT
▁testUn
Starting
▁FileApi
▁TPToken
▁lazySet
▁mwifiex
▁Activate
▁hidinput
cboardinfo
Fingerprint
▁HeaderTBase
▁createValue
RefreshPolicy
▁LibraryClass
DocValuesField
▁TransactionType
Kit
ferr
imen
unit
▁0.8
READY
descq
▁Dual
▁forX
ToMany
▁denom
▁rulei
Trusted
deliver
thenGet
Excluded
oritized
▁capital
▁divisor
▁infolen
▁queryId
▁setMenu
StackSlot
▁MenuItem
▁sampling
StartIndex
▁KeySelector
▁LinkDataMap
▁transitionTo
PkgMethodProxy
▁ExecutionMode
▁UserException
▁socketAddress
▁writeEndObject
62
93_
Aabb
true
▁8080
▁Cast
▁stih
QUIRED
▁grace
Batches
▁getRpc
TableDdl
apturing
roughput
▁Androlib
▁Declared
▁RefClass
▁comments
▁testNull
▁Undefined
▁getParser
▁viewGroup
▁Breakpoint
ReferenceValue
▁getCapability
hdl
▁xm
Coer
algo
alty
▁sun
▁LOAD
▁vfta
Assets
Critic
OpExpr
rogate
▁Categ
▁Hpack
▁Lwjgl
▁ucode
ffected
▁Sensor
▁tmpDir
▁Lottery
▁inMemory
▁Iterators
ANNOTATIONS
ForeignCall
▁replication
▁vertexCount
▁filterConfig
▁getTypeClass
ApiKeyResponse
MatcherOperand
▁URLConnection
entralDirectory
▁CloseableImage
▁DoubleWritable
▁OffsetDateTime
160
iwd
▁ol
PPER
▁KER
▁bIs
▁TOOL
▁nest
▁sgiwd
movable
▁isFull
▁walker
RareTerms
▁Strategy
▁initWith
▁isDirect
Equivalent
Transcoder
scriptions
▁injection
IntegerExpr
▁projection
ArrayElement
WatchRequest
▁DBConstants
▁getFragment
▁TransportGet
▁IRTreeVisitor
▁MultipartFile
▁SQLIntegerExpr
▁dataSourceName
▁FileSystemUtils
oui
▁77
▁GC
8601
eval
subl
unce
riple
▁pcix
Picker
STATIC
▁opNum
▁subch
▁addPath
▁regular
▁testing
DataFrame
DataOutput
Writeables
▁Placement
▁dependsOn
▁fromValue
▁loadRules
ClassFilter
▁Encryption
▁AbstractDao
▁constantPool
uminanceSource
▁ScriptService
JAR
peg
spk
▁MP
▁sf
AINT
ruit
▁cio
▁gfp
▁ldr
pdata
▁CASE
▁Chat
floppy
Operate
▁TopLevel
parameters
LinkedQueue
airScheduler
ConfigBuilder
IndexResponse
lierDetection
▁CyclicBarrier
▁accessControl
▁FileInputFormat
MLE
UTC
Bank
locs
nohw
▁MPT
▁Std
ENTIC
▁FACT
RLower
▁isLocal
ChangeSet
nohwcrypt
RLowerable
▁mainPanel
TierContext
ByHashPrefix
TableColumns
▁SetMultimap
▁adminClient
▁toEpochMilli
▁MemoryManager
▁asSummaryString
52
MED
TLS
tas
▁ub
961_
REAK
▁dbg
▁fcn
Arity
Coded
Longs
THODS
▁Impl
▁bmap
ducers
zation
streams
▁Differ
▁course
FILENAME
KeyClass
▁getMark
UriStatBo
▁checkout
FBWarnings
▁NameMatch
▁getReason
FactoryTest
▁MultiValue
▁getExecute
▁addTransitive
▁containsTable
▁HandlerRequest
PUB
UTT
kit
▁pv
atic
uite
▁Orth
▁cbuf
▁pspi
▁sfgc
marker
▁STACK
▁Scram
▁essid
▁jedis
KvState
WRAPPER
cpumask
▁getOld
▁subset
RootPath
▁WaitFor
▁mstatus
▁hasOption
TypeAdapter
▁errorCount
▁MetricsInfo
frameExecutor
▁ActiveProfiles
▁QueryOperation
▁doInAfterTrace
▁TransformConfig
▁createUnbounded
Beat
hlen
▁fab
▁seg
Dates
TASKS
chant
▁Clob
▁TINY
▁deps
▁forY
LEGACY
ighter
AsBytes
▁phases
▁BaseTck
CpuLoadBo
Exclusive
Pipelined
▁temporary
▁protection
▁sampleRate
▁basePackage
▁SuppressLint
▁partitioning
▁allParameters
▁authenticated
▁getSqlStatement
HS
NEG
oos
▁WE
▁999
CODED
Deopt
▁todo
▁vbuf
DIRECT
rokers
Nothing
printed
▁manual
▁newKey
▁onLoad
Checkbox
▁limited
▁rethrow
Blacklist
ixSetting
▁GlideUrl
▁decoding
aterialize
▁Privilege
▁setSchema
▁ISelection
▁setChecked
▁transforms
▁SearchShard
▁messageType
ContentLength
▁AnnotatedType
▁ParserContext
▁WebSocketFrame
StatisticsCaller
BUF
ELDS
MTPP
very
▁ACL
▁BOOL
▁SENT
▁tlen
▁EQUAL
▁addOr
▁sound
Devices
pwrdown
▁SEARCH
▁isAuto
▁caching
▁shutter
StoreNode
▁POSITION
BoundingBox
▁getVirtual
WriteRequest
▁HttpSession
▁TestResource
RulesStatement
ExecutionVertex
FactoryProvider
63
wc
tim
▁oq
Ring
fake
▁dom
Subset
clipse
▁BLACK
iquibase
▁TempDir
▁windows
▁Receiver
▁Renderer
▁integers
▁getBinary
▁tolerance
FileChooser
▁getGroupId
▁GFileSystem
▁setPriority
▁listIterator
TemplateRequest
▁LimitedPrivate
▁WebSocketClient
hiz
erun
▁DEF
▁HEX
▁jwt
▁tdb
▁xmQ
prote
▁BUIL
▁more
beacon
▁Outer
jiffies
▁COMMON
CATEGORY
DATANODE
anguages
▁IntArray
▁fromAddr
▁nodeList
Allocations
▁SpanHelper
ClassVisitor
▁HyperLogLog
▁LoadedClass
▁workerGroup
▁intermediate
▁recordReader
▁setStartTime
▁timerService
ElectionService
MethodParameter
▁IndexLifecycle
COS
Cop
IDX
ena
▁UK
Unsub
tsens
vised
▁FROM
▁qidx
bypass
cbfunc
Mappers
quencer
▁locked
▁outlen
IndexDao
Viewport
IntervalMs
▁Installed
▁nextValue
▁Coordinate
▁MockDriver
▁SampleData
▁getObjects
▁correlation
FeatureAction
▁setErrorCode
▁ArrayDataType
▁sequenceNumber
▁DirectoryReader
SR
▁scd
ORDIN
▁prefs
▁xpack
iledMap
▁Lucene
▁bitSet
▁RELEASE
efficient
▁discover
FORWARDING
▁createJob
INSENSITIVE
▁MessageExt
▁ThreadInfo
▁filterChain
ServerHandler
ShardingValue
ThreadCountBo
▁factoryClass
BreakpointInfo
▁TimestampData
ResultException
SnapshotResponse
▁schemaTableName
▁PB
Glob
kcan
FETCH
urist
OnNext
▁uxcRB
Bracket
▁wanted
▁FACTORY
▁migrate
▁setOnce
Converted
▁Translog
▁devtools
▁PosixFile
▁clipboard
Acknowledge
Subscribers
Architecture
▁MRJobConfig
▁databaseInfo
▁nodeSettings
SourcePosition
▁RequestHeader
▁DeferredResult
▁createFragment
▁metadataStream
▁PostgreDatabase
▁temporaryFolder
IFF
Nav
PNG
STM
dyn
▁Gu
▁KV
▁vl
4323
▁ofb
TURNS
▁bmcr
▁docs
▁turn
▁ulFx
▁undo
Writers
▁IGNORE
▁Markup
▁linked
▁portal
Remoting
traction
▁prefetch
▁waitTime
▁GridLayout
▁ShortValue
▁columnTypes
▁statVisitor
LoadedClassBo
▁StarlarkValue
▁FormValidation
▁ResolvedSchema
▁SQLCreateTable
▁configurations
ParamInitializer
bcm
dig
imx
ouch
▁tps
5357_
AGENT
Arrow
43236_
▁Dense
▁Quota
▁Super
Reflect
Circular
DATABASE
Infinite
collected
▁CharArray
▁isVisible
▁getProcess
▁isLoggable
Constructors
▁LeafFactory
▁TypeLiteral
▁AttributeKey
▁Backpressure
ServiceFactory
▁StreamSupport
▁checkDisposed
ConnectorConfig
▁Classification
▁ArgumentMatcher
▁we
▁xg
CORE
▁900
▁Drm
Flows
QUOTE
Combiner
ToRemove
riterion
▁setDate
▁DefaultS
▁Wildcard
▁adjacent
▁getJobID
▁testInfo
▁getPublic
▁authorized
TargetSource
ClassProvider
▁columnFamily
▁hasObservers
SourceProvider
▁SerializedValue
NFA
cise
▁Red
Album
apriv
▁4000
TimeWe
▁codes
▁Insets
▁Members
▁LinkData
▁setEmail
FileReader
Negotiation
ElfRelocation
▁executeAsync
▁randomString
▁targetObject
▁messageSource
BeanDefinitions
▁IWorkbenchPart
▁Initialization
▁countDownLatch
DP
PF
Hdr
mep
Atom
Buzz
CEND
ERGE
HIGH
SIST
blkt
conn
▁MEN
ToOne
UTTON
Water
edrus
▁lcdc
chemas
mepriv
▁LINUX
GENERAL
WriteTo
▁CLOSED
▁cedrus
Animated
LongBits
▁Futures
▁NETWORK
▁RETURNS
▁libconf
▁AuthUser
▁setOwner
BaseOffset
FinishTime
SourceFile
▁SqlWriter
▁callbacks
▁pmlmepriv
▁breakpoint
▁RMContainer
▁DBSProcedure
▁KafkaStreams
MetadataUpdate
▁AbstractBuild
▁lookupJavaType
TransportAddress
▁BasicDataSource
ptp
PROM
font
▁dns
Robin
redit
▁GoTo
▁Raft
▁Side
Mocker
Visual
dialog
▁Reser
▁phost
▁radix
Skipped
▁IoUtil
▁getEnv
▁Chunked
DataSetID
▁UserInfo
▁backprop
▁backward
▁ndkPaths
▁onlyWith
▁SessionId
▁collision
▁isInternal
▁threadInfo
▁EconomicSet
▁getLastName
MessageSender
ViewStatement
▁FlinkLogical
▁declareField
▁responseCode
▁setPartition
▁waitForSwing
▁SparseIndexMap
▁XmlRootElement
Cur
_49
LICT
▁0.3
▁Mat
▁Sys
▁rqn
DEPRE
utoff
▁MENU
modedb
▁tries
▁Apache
▁getMem
▁hdrcap
▁qdepth
PROGRESS
RegValue
Validity
▁getById
▁kvState
▁FieldSet
▁excludes
registered
DoubleValue
StatementList
▁CatalogTable
▁Conversation
▁NavigableSet
▁domainObject
▁getSingleton
▁intersection
▁MetricsRecord
▁XContentHelper
▁getColumnCount
▁implementation
▁runtimeContext
▁AbstractMessage
▁KafkaFutureImpl
cha
voir
Clang
REGEX
ycled
▁schq
▁toBe
Quorum
atives
chksum
ipUtil
InSeconds
Safepoint
▁OmsOrder
▁DBAServer
▁OrderItem
▁Precision
▁zookeeper
▁setOptions
▁appendValue
▁getDrawable
▁readInbound
▁setInstance
▁Localization
TM
bi
nu
Gui
tnf
▁Ow
▁our
Reloc
▁VOID
▁qtnf
ISTICS
ortest
▁Photo
▁fctime
▁negate
▁setTag
antifier
CONVERSION
Foreground
▁Optimizer
▁classNode
▁ephemeral
▁fctimeout
▁findClass
▁getResults
MethodInvoke
▁AlertDialog
▁MySQLBinlog
▁RestAssured
▁callContext
▁commandName
▁PhysicalPlan
▁booleanValue
uv
UNIC
▁EGL
▁MOCK
Fusion
Locals
warder
▁COMMA
▁Linux
▁jetty
▁sriov
DConfig
CATEGORI
Infinity
NullFrom
ensation
▁MySQLCom
▁columnType
ParsedResult
▁getFullName
▁setProtocol
AsyncExecutor
TokenResponse
▁HealthEndpoint
▁declareBoolean
▁PropertyMapping
9170
PLAN
hold
otas
sess
step
ether
2000_2
closed
▁Closed
▁MASTER
▁gradle
▁addTask
▁maxIdle
▁oldName
▁trimmed
WithValue
▁FGVertex
▁dbHandle
▁newBuffer
▁setAdapter
▁setWaitFor
▁AbstractGdb
▁newCapacity
RequestHeader
▁StateMachine
▁assertNoErrors
▁OperatorContext
DLE
▁mp
▁vn
hook
▁404
▁DUP
▁ITER
CEEDED
leanup
▁buffy
▁serde
legated
▁EEPROM
▁keytab
▁Kinesis
▁ColorInt
▁FsVolume
▁readList
Dimensions
▁ProgramDB
▁RouteUnit
▁getMaximum
Installation
ItemResponse
▁setDuration
Ant
evq
rac
▁CNN
▁pcr
▁8192
▁vocab
GroupBy
returns
Explorer
SERVATION
▁ExitCode
ClassNames
ClientImpl
ActionReward
DatabaseName
▁JScrollPane
▁ensureGreen
▁handleError
LocalDateTime
▁ScriptEngine
ByQueryRequest
▁fr
META
▁Hit
isors
strain
Produce
ordered
▁Murmur
▁starts
TearDown
▁SERIALI
▁glClear
chantable
ocomplete
▁Contract
▁argTypes
▁CONNECTOR
▁LabelNode
▁FieldValue
Intermediate
▁assertMatch
▁ServerConfig
▁ParamFlowRule
Cols
Uses
stub
▁4.0
▁Neg
▁far
▁good
▁psql
Reveal
CENDING
ShortVal
ereotype
▁setFont
▁setTotal
CharSequence
EventExecutor
▁ParsedBucket
▁AnalysisMethod
▁IndexFieldData
▁getPackageName
▁LogicalTypeRoot
udp
BEAT
▁JMS
▁ldo
▁rgb
utter
▁HALF
▁SPAN
▁into
▁unre
▁vlvf
Sensor
verted
▁sTest
BaseUrl
compute
▁freeze
▁scorer
Dynamics
▁ASTNode
▁Enabled
▁skbdesc
▁parseFrom
▁PrivateKey
▁UNCATEGORI
▁getTemplate
▁prettyPrint
▁setTextColor
StatusException
▁getNumElements
▁SQLServerSchema
avy
Dict
aptype
▁hasNo
segment
uristic
EntrySet
Floating
▁grouped
FrameSize
Derivative
InfoAction
SourceType
▁EventLoop
▁AssertUtil
FieldUpdater
▁customizers
▁getMnemonic
▁startServer
▁createRecord
▁CompilerAsserts
▁getDependencies
▁tw
YEAR
Icons
▁DOWN
Resize
▁Align
▁holtek
▁stable
JoinPool
NameNode
Restored
dictions
▁Anomaly
▁tracing
Forwarded
frequency
▁getGroups
▁getPrefix
▁FooService
▁foreground
▁sslContext
TagsProvider
▁IActivation
▁backingArray
▁routeContext
▁OperationType
▁TestExtension
▁getSerializer
▁namedXContent
▁ShareTinkerLog
OperationFactory
▁oc
Mime
thms
▁BASIC
▁Cause
▁getCl
Buttons
Compress
gorithms
▁getUsed
▁rolling
SIGNATURE
SqlServer
▁NodeType
▁Restrict
▁FixedNode
▁monotonic
BeforeTrace
NotProvided
▁EnableAuto
▁Projection
▁ClientQuota
▁setSettings
▁createClient
▁decompressed
▁Instantiation
▁GetApplication
▁SQLiteDatabase
▁SystemProperty
LTA
_4_
upd
Play
flex
▁LAY
▁OCT
flexc
marks
▁NOOP
▁muli
ATALOG
ENTIAL
UserId
▁Pages
▁ppdev
Utility
session
▁DBIcon
▁LAYOUT
▁getLen
Occurred
Rejected
▁negative
ArrayIndex
UpdateTime
▁FieldType
AsyncClient
IndexWriter
MemoryCache
▁Assumption
▁inputTypes
Certificates
SearchAction
▁invocations
▁visitMethod
CustomMetadata
▁writeToParcel
FragmentManager
▁DescriptorImpl
Pwr
▁ks
nife
▁1.1
▁Try
▁jmx
Magic
Prime
▁Ints
SIGNED
NDArray
▁needle
Ordinals
▁browser
EntityDao
▁Interner
▁feedback
▁setScope
▁TextField
▁Nonmovable
▁getSources
▁references
▁setPoolPre
FieldFactory
▁PageBuilder
▁getContents
▁nextStepKey
▁preferences
PathComponent
▁compileFiles
▁getAlgorithm
▁resourcePath
MetricCollector
SecurityManager
▁LogAggregation
MethodInvokeExpr
oug
Uris
▁110
▁Mms
SCALE
ctxts
CISION
▁HOURS
▁Sonic
BOOLEAN
▁getApi
▁ghidra
ForWrite
Integers
Mutation
Prefetch
SETTINGS
▁PRIMARY
▁getLogs
▁fromBytes
▁getBlocks
▁nativeGet
▁postValue
▁resultMap
KeySelector
measurement
▁Spliterator
▁nextBoolean
▁getCondition
▁getFunctions
▁UriComponents
▁timeHistogram
▁setToolTipText
MetricsPublisher
DESC
WIFI
▁aci
CHANG
▁0.75
▁YEAR
SAMPLE
DirPath
Lengths
Receipt
▁Avatar
blocking
▁ELEMENT
▁StringTo
▁TriState
▁anonymous
▁getHealth
▁getSocket
▁startWith
WebEndpoint
▁MetricConfig
▁OutputBuffer
▁getInstances
FlashPromotion
GeneratedClass
RewriteContext
▁AWSCredentials
▁SampleElements
▁ClusterSettings
▁toStatementList
BIND
Cors
▁agc
▁pub
AFTER
▁BACK
ATTEMP
▁endPos
▁ingpad
▁defined
▁assigned
▁isNative
NullValues
ObjectImpl
RpcService
▁UNDEFINED
▁setNumber
▁snapshots
Diagnostics
▁getPending
▁planNodeId
▁WebSecurity
▁assertValid
▁EqualsTester
▁MultiDecoder
▁acknowledged
▁connectionId
▁CacheOperation
▁clientInstance
▁repositoryName
▁LifecyclePolicy
▁WebSocketServer
Dn
IFY
dbf
▁JR
Abfs
CATED
sTest
▁xmit
Prepar
AndCheck
ByNative
Uncached
▁harness
WithFixed
▁MockHttp
▁getInner
▁modifier
▁GetRollup
▁storeName
Descriptions
▁getSecurity
▁namespaceId
▁valueBuffer
ParameterTypes
▁FailureAnalysis
▁doInBeforeTrace
UV
Jav
OFT
▁sv
Bird
▁bos
▁phi
CODER
▁Note
Frozen
tunnel
▁testB
▁equate
BasePath
Kerberos
filtered
▁traffic
▁without
IMessages
ReadWrite
OpenOption
▁AbstractS
▁disposable
▁queryBlock
Authenticate
StoredScript
▁UserDefined
▁keySelector
▁GeneralUtils
▁requestBuilder
▁aa
ennas
▁Many
▁nsec
ailout
▁SPACE
▁iwarp
BackOff
▁getDay
▁opType
antennas
▁Baeldung
▁STANDARD
Exclusions
▁getMapped
ValueGetter
▁getBuilder
▁stateStore
▁symbolName
PropertyFile
▁readOptional
uck
▁LD
▁ai
▁234
▁ilm
ByTag
▁Smtp
ceberg
▁lport
CLUSIVE
Flatten
▁10_000
▁MULTIP
▁choice
EXISTING
POSITION
Retrieve
JobVertex
ToMessage
▁INTERCEPT
▁addPlugin
▁fieldIndex
▁SliceOutput
▁assertEqual
NodeException
▁dataSourceMap
▁getObjectType
▁CommandResponse
▁OperatingSystem
▁dataTypeManager
yld
▁UDF
▁dlm
3000_
▁mach
Ghidra
▁Adapt
CREATED
MONITOR
Reorder
▁Jersey
aturalId
▁deliver
▁numBits
Demangler
Persister
▁Iterative
▁Whitelist
▁TTransport
▁standalone
▁requestBody
ExecuteEngine
▁memoryManager
▁addServiceType
▁getContainerId
▁QueryExpression
▁<<=
▁Pem
Newer
▁FINE
▁Giphy
▁getFS
STRAINT
▁Striped
▁getSort
▁numRows
WaterMark
▁baseName
▁intersect
▁setGlobal
▁foreignKey
RestResponse
▁IteratorSTL
▁assignments
▁onConstruct
▁setVariable
▁NavigableMap
▁ParserWalker
▁BytecodeBlock
▁ValueAnimator
▁SortedMultiset
▁removeAttribute
93
esc
initr
▁xgbe
PartOf
Stable
escape
Spatial
▁REJECT
izations
▁msgSize
▁testNon
Finalizer
qlSession
▁FireBird
▁Messaging
▁testBuild
InteropType
▁Sequential
▁elementSet
▁testEncode
MigrationJob
StateChanged
TimeProvider
▁LLVMContext
▁numElements
▁ClientConfig
▁TestExecution
▁getMemorySize
▁tempDirectory
Roc
▁eid
▁rxb
Evict
▁cron
Enroll
Pretty
Reject
parent
RESSION
▁Logged
▁clause
▁outcome
▁AclEntry
▁DISABLED
▁rootPath
SpringBoot
▁basicAuth
▁TException
▁findByName
▁Observation
▁HttpSecurity
▁SqlParserPos
▁VTController
▁setLongValue
▁getAdditional
MethodInvocation
▁AggregationNode
▁getAggregations
qa
JDK
ety
▁41
▁ga
8112
▁CAT
Inside
WebApp
▁BUILD
▁digit
Planner
▁LOWEST
▁openqa
▁stderr
▁getJoin
▁scaling
BlobStore
▁BitArray
▁contacts
▁mapToInt
CellEditor
Influencer
LinkedList
MemoryUsed
▁fieldData
▁addVisible
▁tFAgentStat
▁unsupported
▁PowerMockito
▁decompressor
▁doPrivileged
▁Documentation
AttributeMapper
▁DiscoveryNodes
▁NDArrayWritable
Px
264
Udf
XED
vtt
ners
Https
otlin
▁WAIT
▁WRAP
▁bart
needed
▁MONTH
▁hfunc
▁pdesc
Interim
▁tsense
ListSize
▁setPage
▁decision
Namespaces
Normalizer
▁VTSession
▁findField
▁termQuery
▁verifyTrue
StateFactory
▁CallExpression
▁SR
MAIL
DICES
Mysql
▁tile
▁deque
▁nodeV
JdbcUrl
Payment
▁Dumper
▁MockRM
▁REMOVE
▁locate
CacheDir
▁Greeter
▁WString
GroupName
▁conflict
▁dataSize
▁setLabel
▁testType
▁orElseGet
▁retainAll
▁setAsText
▁totalSize
Speculation
SQLStatement
▁ToolBarData
▁attachments
ReportRequest
EditorProvider
▁getActivation
CaseInsensitive
▁parameterIndex
enum
ugar
LIPOP
TICAL
BIDDEN
SECURE
▁assoc
▁bWIFI
Journal
▁Submit
Cfgclaim
otential
▁0.00001
▁NodeDef
▁getSend
▁getStep
▁testRun
BuildTime
Inclusive
▁Captured
▁affinity
▁getInputs
▁getIntent
▁inputGate
▁isWrapper
AddressType
TextMessage
▁getDynamic
▁getPlugins
MethodFilter
MethodHandle
▁getProduced
▁httpHandler
ClientManager
Deterministic
▁CacheBuilder
PendingCommand
▁bWIFICfgclaim
▁searchRequest
DN
RON
Udt
▁SA
▁ta
▁Omf
▁Utf
▁Glue
usable
▁Escap
▁OWNER
METHODS
▁Called
▁JField
▁prompt
▁ReturnT
▁getMean
▁SETTINGS
▁hasParam
TimeWeaver
▁getSecret
▁joinPoint
Multiplexer
ularization
▁resultPath
OperatorBase
TableMetadata
CommandService
▁SessionWindow
▁subscribeWith
ResourceProfile
▁CalledByNative
▁resultPartition
▁simpleClassName
PTH
▁TX
▁fg
LIER
Ldap
aret
▁ANT
▁Gnu
▁git
CHARS
▁omit
▁Flags
▁RETRY
▁activ
▁ndata
acities
edField
written
▁family
periodic
uarantee
▁gateway
▁tmpFile
Exclusion
▁getFlags
Alphabetic
▁getRawType
▁isExternal
▁setSuccess
▁DBPDataKind
▁ProxyContext
▁getHistogram
▁InstalledCode
▁CS
URLs
void
zero
▁Img
▁Upd
▁pay
Reads
Saved
ucRoc
▁flux
▁jbox
Coupon
▁Opaque
▁STATIC
▁altern
▁getAud
Backends
SafeMode
▁OneShot
Operators
istrative
▁setLimit
▁exclusive
▁setMethod
▁successor
▁TraceThread
▁withFeatures
RequestWrapper
▁FileCopyUtils
UpdateStatement
▁ChangeListener
▁randomInstance
yin
Just
Libs
appy
udson
▁Atop
▁Dwrf
▁msgs
UserBy
▁rdptr
ropping
wrapped
▁expiry
CharExpr
▁LogEvent
▁Playlist
Enrollment
▁management
▁stateAfter
▁Incremental
▁ProjectData
StreamFactory
▁isRegistered
AnnotatedClass
InboundHandler
InstanceMethod
▁ChangelogMode
▁getJobManager
▁setAutoCommit
▁PropertyFilter
▁getClusterName
▁FlatMapFunction
▁HostedOptionKey
162
omb
▁Sdk
▁Sofa
▁apfw
▁rcvd
Neighb
Regexp
phrase
▁vxlan
InRange
izzBuzz
▁Chrome
▁border
▁btDbvt
▁isJava
LEGATION
▁getDest
▁toolbar
▁UpmsUser
▁blacklist
▁factorial
DemoFragment
▁CommonFields
▁ImageRequest
▁ListMultimap
▁messageDigest
AttributeSource
▁CommandProcess
ServletWebServer
▁DR
Good
TACT
uess
▁1.5
▁eol
Crash
Guava
Shown
sLock
▁skin
Corner
▁GeoIp
▁Smali
▁Spill
KeyPair
OfMonth
TDigest
artItem
▁RelOpt
▁ticker
BlackBox
▁doThrow
▁getTree
SELECTION
Whitelist
▁isMember
StateCache
▁AttrValue
▁COMPONENT
▁Hashtable
▁MasterKey
▁getAuthor
▁gradients
▁rightPrec
HostAndPort
▁RestResult
StreamProtos
▁getClientId
▁LossFunction
ServerProvider
▁ExecutionType
▁PrimitiveType
▁getChildCount
▁getObjectName
MF
Mul
exp
▁BR
brev
plum
warf
▁Day
▁LOL
▁cgx
▁srq
OTTOM
alter
codec
HANDLE
endant
itness
locked
Postgre
▁images
ASSIGNED
INITIALI
LoadData
Vertical
▁RelNode
▁Summary
▁sampler
▁LOLLIPOP
▁getDelay
▁getLogin
▁testFind
▁withName
▁Interrupt
▁RowMapper
▁getCookie
▁isShutdown
▁objectType
ingException
▁MemoryUsage
▁Performance
ingConvention
▁MessageFormat
▁PinpointPlugin
▁getAuthorities
▁getCurrentUser
▁MappedStatement
Xa
▁BY
RIPT
apon
▁xor
▁FLOW
Triple
itored
▁Force
▁OkHttp
▁getXid
▁rewind
▁AspectJ
▁testers
IfPresent
▁Forecast
▁drivename
▁WasmMemory
▁curshortgi
▁getOrdinal
▁yamlConfig
RestTestCase
▁CGlobalData
▁DocCategory
▁DbgModelUtil
▁readNextLong
▁IndexSearcher
▁RpcInvocation
▁TextStructure
▁prepareCreate
▁transactional
▁ResourceGroupId
CB
Cr
Ints
cbus
▁Avg
▁Xid
Addrs
▁>>>=
▁REST
▁sasl
▁CATEG
▁Owner
▁Spann
▁nodeU
Another
ForEach
Synonym
sAction
▁JFrame
▁getOpen
▁preview
▁zipFile
▁MlFilter
▁NodeList
▁getNames
▁leftPrec
FSContract
ShardCount
▁TargetApi
▁jsonParser
SplitManager
▁AssetManager
▁processorTag
▁DialogComponent
▁MI
LEFT
iser
▁lon
ening
▁cors
JECTED
LogDir
MINIMUM
▁getAvg
▁ADDRESS
▁WebFlux
▁addData
▁datalen
▁getFast
▁lengths
▁reflect
Collected
▁Rollover
▁specific
▁userData
▁getEngine
▁jsonCodec
▁transpose
SliceOutput
▁MobileCoin
▁UserEntity
▁addDefault
▁tempFolder
▁JspException
▁initialDelay
▁majorVersion
▁recyclerView
ConstraintData
StreamObserver
▁getResultList
▁localVariable
▁setProperties
▁ProfilerPlugin
YM
▁66
_32_
▁how
▁nop
▁tod
Judge
POWER
TITLE
uster
Footer
▁rowDt
CLASSES
CpuTime
pointer
▁300000
▁PubSub
▁Rating
▁errMsg
▁onBind
▁Keyword
▁setSeed
ClassNode
threshold
▁Produces
▁periodic
▁Iteration
▁ancestors
▁effective
▁ClientYaml
AccessorType
▁getRowCount
DisplayString
DriverService
▁StaticMethods
▁AbstractMsType
▁timeValueMillis
DNS
FFS
BITS
atel
▁Pri
Emoji
IntVal
▁druid
PENDING
Watches
▁middle
FromFile
HeapUsed
atellite
▁savebbp
DataEntry
NextEntry
OrDefault
▁GraphDef
Tablespace
▁WriteNull
▁minibatch
▁
e
t
r
i
a
n
s
o
l
c
u
(
)
p
d
g
.
S
R
;
m
b
T
_
A
f
h
v
,
{
}
V
y
C
=
E
w
x
O
I
L
N
P
M
D
1
k
F
B
@
0
>
<
q
2
U
H
+
j
z
3
G
W
4
5
[
]
J
6
K
8
7
:
Q
9
!
-
Y
?
X
&
|